{
    "ا": 66711293,
    "و": 19788580,
    "ر": 11597595,
    "لا": 8482201,
    "د": 6848847,
    "ن": 5958309,
    "ت": 5706113,
    "في": 5156838,
    "ة": 4911701,
    "من": 3696760,
    "ل": 3691997,
    "م": 2680980,
    "ي": 2589277,
    "با": 2520226,
    "ما": 2276386,
    "على": 2250116,
    "ء": 2041072,
    "ز": 1933043,
    "لى": 1796848,
    "ية": 1706313,
    "لد": 1679878,
    "لو": 1293389,
    "كا": 1275747,
    "ب": 1233909,
    "يا": 1221719,
    "ه": 1147015,
    "قا": 1145058,
    "لتي": 1105514,
    "لر": 1090110,
    "ف": 1056862,
    "ير": 1041910,
    "عا": 1017120,
    "ق": 1005533,
    "يد": 1000415,
    "لعا": 968257,
    "لذ": 949427,
    "ع": 946566,
    "لة": 942697,
    "مو": 896988,
    "ذ": 896409,
    "نا": 866046,
    "ى": 849182,
    "هذ": 794496,
    "عن": 723294,
    "ها": 706481,
    "س": 703902,
    "جا": 692142,
    "لمو": 690310,
    "عد": 674424,
    "مة": 674405,
    "مر": 673614,
    "سا": 663052,
    "بو": 650317,
    "لما": 645841,
    "مع": 640802,
    "فا": 606665,
    "فر": 601581,
    "لي": 594068,
    "لمر": 585060,
    "ك": 582686,
    "ين": 577679,
    "تو": 571398,
    "يو": 570089,
    "حد": 568210,
    "خلا": 563710,
    "بر": 556528,
    "ني": 551374,
    "ض": 538309,
    "بي": 533058,
    "شر": 521431,
    "للا": 520050,
    "لم": 514643,
    "كة": 495748,
    "مد": 482827,
    "حا": 478382,
    "ح": 473593,
    "فة": 472698,
    "لك": 471792,
    "خر": 465590,
    "قد": 464973,
    "ضا": 459256,
    "لية": 452012,
    "نية": 427477,
    "هو": 425578,
    "بعد": 423996,
    "ج": 422306,
    "بد": 421385,
    "سو": 420511,
    "لشر": 419745,
    "هم": 415772,
    "نه": 408379,
    "عة": 408192,
    "لعر": 401650,
    "يق": 397389,
    "بين": 391690,
    "ىيس": 387814,
    "تا": 385495,
    "لفر": 384048,
    "تر": 377522,
    "شا": 376629,
    "ث": 373993,
    "قة": 368323,
    "بية": 364862,
    "لقا": 350222,
    "جو": 349981,
    "صا": 347810,
    "نو": 347762,
    "لمد": 347157,
    "كز": 342346,
    "خا": 327344,
    "تحا": 325868,
    "كر": 325262,
    "جد": 323671,
    "نها": 322239,
    "حيث": 321178,
    "ظبي": 320287,
    "بن": 316489,
    "لثا": 315411,
    "كد": 304466,
    "بة": 304263,
    "كما": 298111,
    "كل": 297773,
    "صة": 289085,
    "ته": 282904,
    "لخا": 281840,
    "ط": 281577,
    "مس": 280453,
    "لنا": 275281,
    "ليا": 272380,
    "سر": 271696,
    "محمد": 265736,
    "طا": 263461,
    "لها": 260302,
    "ضي": 258713,
    "جر": 255458,
    "لز": 253302,
    "نت": 252366,
    "مبا": 251680,
    "لحا": 249522,
    "تها": 243556,
    "لتا": 242629,
    "ص": 241073,
    "لتو": 240485,
    "لشا": 240105,
    "قو": 238050,
    "هد": 237721,
    "كو": 236687,
    "لسا": 232533,
    "سة": 232083,
    "لبر": 231685,
    "عر": 231068,
    "مير": 229527,
    "له": 228811,
    "ليو": 228639,
    "ند": 228134,
    "لمبا": 225582,
    "لله": 216778,
    "قبل": 216756,
    "عما": 215757,
    "علا": 215746,
    "لتر": 214355,
    "عبد": 213975,
    "قر": 206259,
    "هي": 204916,
    "لسو": 204336,
    "حو": 201280,
    "قع": 200765,
    "لجا": 200574,
    "كثر": 200348,
    "غير": 199249,
    "ىر": 198539,
    "تد": 198513,
    "تفا": 197469,
    "لسيا": 195391,
    "سم": 195350,
    "لشيخ": 194181,
    "طر": 192515,
    "حة": 192118,
    "لمنا": 191327,
    "نة": 190168,
    "حر": 189005,
    "فو": 188543,
    "مسا": 188255,
    "يز": 186302,
    "عند": 186120,
    "سيا": 185485,
    "مية": 184131,
    "لتعا": 183490,
    "حتى": 182222,
    "كبير": 182014,
    "حمد": 179781,
    "لمشا": 179761,
    "بع": 178344,
    "قتصا": 178133,
    "مل": 177642,
    "عية": 175741,
    "تي": 173617,
    "لمسا": 173474,
    "ثا": 171942,
    "منا": 170250,
    "لعمل": 170157,
    "ىية": 169909,
    "صل": 167998,
    "لقد": 164642,
    "تقد": 163560,
    "معا": 162190,
    "لكن": 161811,
    "صو": 161581,
    "تم": 161370,
    "لبا": 160282,
    "مي": 159841,
    "مجلس": 159214,
    "هنا": 159191,
    "يم": 158997,
    "لكر": 156774,
    "يل": 155918,
    "سية": 154885,
    "مج": 154784,
    "لجو": 154222,
    "بها": 152494,
    "قت": 152156,
    "جتما": 151971,
    "لطا": 151450,
    "عو": 149997,
    "عي": 145646,
    "لحكو": 145592,
    "لجد": 145456,
    "صد": 145187,
    "لقو": 143145,
    "مستو": 142836,
    "لت": 141820,
    "خير": 141777,
    "ينة": 141699,
    "بل": 141549,
    "نب": 141435,
    "لحر": 141138,
    "فع": 139875,
    "لقر": 138936,
    "مليو": 138780,
    "هر": 138248,
    "شد": 137492,
    "عم": 137048,
    "لعد": 136859,
    "به": 136384,
    "مكا": 136055,
    "سمو": 135729,
    "جل": 135684,
    "لمتحد": 135362,
    "بعة": 134510,
    "منذ": 134169,
    "نسا": 133647,
    "ىز": 132646,
    "سي": 132302,
    "مقا": 131909,
    "مين": 131823,
    "بنا": 131592,
    "ستر": 131081,
    "ىي": 130924,
    "صر": 130045,
    "فيها": 129706,
    "ضية": 129620,
    "نيا": 129344,
    "يضا": 127928,
    "طة": 127040,
    "ىد": 126756,
    "خل": 126712,
    "لحد": 125198,
    "حب": 125182,
    "بعض": 125141,
    "جة": 124936,
    "مشا": 124028,
    "سبا": 123499,
    "نجا": 122485,
    "لمية": 121354,
    "سعا": 121115,
    "لف": 121019,
    "بشكل": 121019,
    "جما": 120863,
    "سلا": 119729,
    "لمعا": 119353,
    "جه": 119329,
    "لفا": 119123,
    "لمنطقة": 118490,
    "سط": 118392,
    "يع": 118083,
    "فيما": 117808,
    "تجا": 117733,
    "لكو": 117467,
    "بما": 117261,
    "لبطو": 116737,
    "ضر": 115175,
    "ثر": 114672,
    "مها": 113314,
    "مثل": 112120,
    "شهر": 112003,
    "لفو": 111827,
    "تهم": 111184,
    "ملا": 110994,
    "منها": 110688,
    "كتو": 110620,
    "نتا": 110333,
    "لتد": 110230,
    "فضل": 110188,
    "نحو": 110187,
    "لتجا": 109315,
    "ىب": 109298,
    "علي": 108966,
    "كية": 108076,
    "مجا": 107127,
    "عب": 107060,
    "كي": 106651,
    "طو": 106424,
    "ستثما": 106054,
    "لكا": 104741,
    "يقو": 104397,
    "جية": 104344,
    "حلة": 103447,
    "يكو": 102816,
    "نهيا": 102293,
    "غر": 102127,
    "للو": 102010,
    "فية": 101933,
    "كبر": 101821,
    "لقطا": 101731,
    "تطو": 101608,
    "لخد": 101598,
    "قية": 101459,
    "غا": 101275,
    "خو": 101248,
    "حيا": 100703,
    "سهم": 100446,
    "تمر": 99728,
    "مليا": 99104,
    "جهة": 98865,
    "ثة": 98819,
    "فيه": 98333,
    "غم": 97508,
    "عبر": 97317,
    "محا": 96944,
    "عبين": 96928,
    "لطر": 96708,
    "ضح": 96620,
    "لشو": 96573,
    "عليه": 96524,
    "بنسبة": 95770,
    "مما": 95376,
    "ضة": 95096,
    "لمجلس": 94380,
    "لغر": 94229,
    "قطا": 94198,
    "تلك": 93694,
    "لجز": 92826,
    "ضع": 92589,
    "تنا": 92385,
    "فير": 92286,
    "جها": 91535,
    "مجمو": 91531,
    "ينا": 90991,
    "جميع": 90929,
    "يب": 90823,
    "ثم": 90728,
    "للجنة": 90139,
    "قف": 90082,
    "لشبا": 90013,
    "نقطة": 89427,
    "يمكن": 89377,
    "يطا": 89320,
    "منطقة": 89273,
    "طلا": 89136,
    "فق": 88931,
    "لسمو": 87780,
    "تحد": 87575,
    "لثقا": 87030,
    "حية": 86809,
    "لمعر": 86411,
    "ثلا": 85965,
    "ضو": 85954,
    "يجا": 85846,
    "لمصر": 85831,
    "طني": 85280,
    "تعا": 84826,
    "بيا": 84669,
    "قيا": 84468,
    "لمحا": 84377,
    "ىل": 84251,
    "لقيا": 84038,
    "سبو": 83604,
    "لعلا": 83590,
    "جز": 83487,
    "بلا": 83412,
    "لبحر": 83369,
    "عليها": 83023,
    "لفتر": 82576,
    "ليس": 81867,
    "لنو": 81529,
    "لمز": 81501,
    "بقة": 81460,
    "لصا": 81377,
    "خد": 80850,
    "ضمن": 80708,
    "عشر": 80634,
    "يين": 80485,
    "لمقبل": 79091,
    "لعين": 79006,
    "كم": 78728,
    "لتنفيذ": 78670,
    "تحقيق": 78566,
    "مشر": 78435,
    "تصا": 77998,
    "لنها": 77612,
    "تكو": 77414,
    "نشا": 77405,
    "مشير": 76942,
    "طق": 76075,
    "سنو": 75863,
    "لجها": 75822,
    "يتم": 75736,
    "ش": 75714,
    "لمشر": 75705,
    "ستخد": 75684,
    "لمجتمع": 75590,
    "هل": 75329,
    "فقد": 74441,
    "تقو": 74152,
    "لبلد": 73945,
    "سسة": 73925,
    "لغا": 73512,
    "مسو": 73167,
    "همية": 72956,
    "بطو": 72930,
    "لمتو": 72914,
    "مختلف": 72829,
    "لمجا": 72591,
    "لمنتخب": 72527,
    "لكبير": 72263,
    "ملة": 72061,
    "حل": 71920,
    "فين": 71502,
    "طفا": 70917,
    "سما": 70910,
    "لمقا": 70821,
    "لمستو": 70584,
    "سسا": 70331,
    "قي": 70146,
    "تز": 70038,
    "حين": 69815,
    "لهم": 69611,
    "تعز": 69515,
    "بق": 68896,
    "لتطو": 68884,
    "معر": 68873,
    "تقا": 68855,
    "تحت": 68667,
    "لهيىة": 68554,
    "مه": 68443,
    "معة": 68344,
    "مصر": 68332,
    "كثير": 68256,
    "بسبب": 68247,
    "شو": 68054,
    "شهد": 67745,
    "مت": 67403,
    "فعا": 67359,
    "مز": 67303,
    "لثلا": 66586,
    "يت": 66400,
    "جع": 66175,
    "طن": 65934,
    "عمل": 65439,
    "طنية": 65067,
    "يف": 64903,
    "تعر": 64885,
    "فقط": 64494,
    "سعيد": 64478,
    "سيو": 64378,
    "لسلا": 63970,
    "لمسو": 63934,
    "للد": 63490,
    "كذ": 63402,
    "لمي": 63362,
    "لث": 63174,
    "يس": 62750,
    "قيقة": 62573,
    "صلا": 62253,
    "لحو": 62004,
    "يقة": 61931,
    "لن": 61739,
    "لكثير": 61719,
    "بلغت": 61608,
    "لبنا": 61534,
    "يقا": 61350,
    "لند": 61294,
    "نيو": 61243,
    "هتما": 61227,
    "نقا": 61071,
    "هيىة": 60832,
    "تية": 60769,
    "ستمر": 60636,
    "عضا": 60101,
    "يخ": 59972,
    "لبد": 59920,
    "للقا": 59896,
    "لين": 59771,
    "يتو": 59693,
    "بهد": 59631,
    "نتخا": 59499,
    "لب": 58967,
    "لكتر": 58848,
    "لسر": 58823,
    "بينما": 58771,
    "خليفة": 58642,
    "يه": 58632,
    "حي": 58569,
    "لجما": 58557,
    "ىمة": 58527,
    "لسعو": 58200,
    "ىا": 57775,
    "هما": 57568,
    "لمجمو": 57555,
    "لهذ": 57258,
    "عملية": 57220,
    "هير": 57175,
    "بطا": 57131,
    "سلطا": 57074,
    "لهو": 57062,
    "لعو": 57022,
    "لصنا": 57006,
    "فتر": 56588,
    "ستا": 56581,
    "يمة": 56165,
    "ىج": 56079,
    "لميا": 55865,
    "ىق": 55804,
    "فد": 55711,
    "لهد": 55509,
    "عقد": 55448,
    "لصو": 55369,
    "حما": 55311,
    "جيد": 54977,
    "يبا": 54924,
    "فت": 54591,
    "لتز": 54035,
    "لحيا": 53491,
    "جنو": 53453,
    "ىم": 53339,
    "مطا": 53169,
    "نز": 53052,
    "جيا": 53029,
    "تنفيذ": 52890,
    "فلا": 52841,
    "طنين": 52767,
    "لمصا": 52676,
    "متر": 52660,
    "لعقا": 52649,
    "عمر": 52562,
    "فقا": 52506,
    "بحسب": 52396,
    "تعد": 52269,
    "تيجية": 52210,
    "مصا": 52203,
    "لح": 52108,
    "للر": 52078,
    "بلد": 52061,
    "بذ": 51956,
    "قل": 51955,
    "لبلا": 51913,
    "لسبا": 51885,
    "نهم": 51709,
    "ننا": 51691,
    "بشا": 51674,
    "نظر": 51622,
    "لمقبلة": 51443,
    "تبا": 51374,
    "ليه": 51351,
    "نفسه": 51064,
    "لخليج": 51018,
    "لنسبة": 50896,
    "لفني": 50760,
    "متا": 50639,
    "لجنة": 50286,
    "حتيا": 50216,
    "هلي": 50100,
    "يجب": 50062,
    "بهذ": 50014,
    "لسنو": 49556,
    "صنا": 49245,
    "عبا": 49227,
    "للمر": 49067,
    "مكتو": 49064,
    "صيد": 49044,
    "عضو": 48966,
    "لمحلية": 48947,
    "يلا": 48883,
    "نظا": 48761,
    "ميا": 48626,
    "سمي": 48596,
    "بلغ": 48540,
    "للمو": 48523,
    "يعا": 48461,
    "حكو": 48410,
    "ظهر": 48259,
    "جي": 48158,
    "صمة": 48006,
    "لنظا": 47907,
    "حسن": 47818,
    "ليد": 47596,
    "لملا": 47527,
    "لمكا": 47446,
    "لتعليم": 47429,
    "لقضا": 47427,
    "ثنا": 47276,
    "لتنمية": 47254,
    "نمو": 47219,
    "تقر": 46942,
    "قيمة": 46912,
    "سبة": 46839,
    "خلية": 46743,
    "لتقد": 46482,
    "عتبا": 46423,
    "يتر": 46399,
    "لجمهو": 46387,
    "بقا": 46307,
    "لجميع": 45944,
    "لجنو": 45688,
    "لشهر": 45633,
    "جهز": 45296,
    "متو": 45290,
    "يحا": 45012,
    "نتر": 44812,
    "عمليا": 44808,
    "قم": 44659,
    "ظ": 44379,
    "لبو": 44184,
    "نج": 44073,
    "ظل": 44045,
    "تين": 43959,
    "لكل": 43763,
    "معد": 43529,
    "نسبة": 43387,
    "خذ": 43307,
    "نحن": 42984,
    "لصد": 42757,
    "نشر": 42730,
    "هيم": 42697,
    "لهند": 42642,
    "هب": 42517,
    "لمعلو": 42503,
    "تما": 42499,
    "يعد": 42475,
    "يث": 42434,
    "لخبر": 42382,
    "لبيىة": 42253,
    "نما": 42155,
    "نتها": 42052,
    "لجر": 41891,
    "حز": 41817,
    "ضد": 41810,
    "لفنا": 41779,
    "لمشتر": 41705,
    "خطو": 41597,
    "ستو": 41442,
    "لفنية": 41385,
    "صحا": 41246,
    "بعا": 41192,
    "تجر": 41130,
    "لصحة": 40908,
    "كن": 40831,
    "منية": 40707,
    "منه": 40649,
    "جهو": 40599,
    "فسة": 40304,
    "يقد": 40065,
    "خصو": 39937,
    "تتو": 39908,
    "تسا": 39764,
    "لمهر": 39759,
    "لبشر": 39749,
    "نتقا": 39667,
    "لخيمة": 39623,
    "بيع": 39590,
    "مم": 39511,
    "لتحد": 39273,
    "نين": 39220,
    "عين": 39170,
    "خطا": 39149,
    "علن": 39122,
    "يج": 39068,
    "ىة": 39029,
    "سيكو": 38976,
    "نتيجة": 38896,
    "لخر": 38763,
    "عز": 38640,
    "ختيا": 38474,
    "حيد": 38456,
    "تنظيم": 38427,
    "تفع": 38294,
    "ستقر": 38287,
    "كلا": 38286,
    "تب": 38204,
    "هز": 38143,
    "لنفط": 38034,
    "بط": 37939,
    "كبا": 37931,
    "خبر": 37881,
    "لمنظمة": 37624,
    "حسا": 37605,
    "لفعا": 37566,
    "عيا": 37555,
    "فسا": 37524,
    "سع": 37517,
    "لشعب": 37397,
    "كتا": 37298,
    "نسي": 37216,
    "لنمو": 37101,
    "يعتبر": 37046,
    "لمخا": 37013,
    "لشعر": 36974,
    "لمتا": 36889,
    "فظة": 36883,
    "حتر": 36881,
    "سب": 36870,
    "خ": 36762,
    "لمها": 36745,
    "لتفا": 36738,
    "يبد": 36522,
    "بير": 36503,
    "سجل": 36481,
    "يذ": 36430,
    "سف": 36393,
    "نشطة": 36393,
    "تهد": 36355,
    "لكنه": 36329,
    "لكتا": 36319,
    "لتحقيق": 36310,
    "لنسا": 36308,
    "فتتا": 36278,
    "لعما": 36261,
    "ظا": 36244,
    "علنت": 36212,
    "ىيا": 36210,
    "فكا": 36193,
    "يشا": 36051,
    "حتفا": 36047,
    "كين": 35970,
    "ستفا": 35943,
    "يلة": 35872,
    "ىه": 35740,
    "بز": 35695,
    "تحو": 35656,
    "عنا": 35617,
    "بقيمة": 35447,
    "مضا": 35412,
    "يير": 35359,
    "سعر": 35305,
    "سنة": 35214,
    "تصر": 35183,
    "نطلا": 35147,
    "ملين": 35108,
    "سيتم": 35102,
    "ىيل": 35063,
    "سد": 35054,
    "ستعد": 35052,
    "لفجير": 35007,
    "لصحية": 34998,
    "لثة": 34891,
    "يقيا": 34852,
    "عجما": 34819,
    "لمطا": 34664,
    "شما": 34653,
    "كيز": 34646,
    "يقه": 34644,
    "مصد": 34586,
    "لبيا": 34487,
    "نس": 34220,
    "لجيش": 34164,
    "لبحث": 34111,
    "سلو": 34024,
    "بلو": 34011,
    "حلا": 33893,
    "غ": 33882,
    "سكا": 33826,
    "فتا": 33812,
    "سير": 33734,
    "لحما": 33730,
    "مقر": 33593,
    "لمسر": 33589,
    "سعة": 33588,
    "بحا": 33452,
    "لمختلفة": 33406,
    "لنقا": 33398,
    "تعتبر": 33361,
    "بتو": 33341,
    "لطو": 33130,
    "صلة": 33074,
    "لنجا": 32995,
    "منهم": 32788,
    "ىلا": 32707,
    "نبا": 32599,
    "عتما": 32575,
    "يها": 32561,
    "تف": 32485,
    "لعسكر": 32427,
    "حضر": 32403,
    "لعز": 32321,
    "منتخب": 32307,
    "ثير": 32302,
    "ثقا": 32292,
    "للقب": 32273,
    "مخا": 32251,
    "كيد": 32204,
    "يسا": 32159,
    "لمىة": 32141,
    "بكل": 32131,
    "لحصو": 32106,
    "ىع": 32028,
    "لصين": 31999,
    "عهد": 31944,
    "لمقر": 31938,
    "مى": 31928,
    "عها": 31884,
    "لشما": 31868,
    "تعمل": 31826,
    "ليها": 31802,
    "بمو": 31795,
    "تشهد": 31750,
    "كيا": 31732,
    "ىما": 31705,
    "يلي": 31693,
    "نر": 31684,
    "ىها": 31633,
    "عت": 31616,
    "نجليز": 31487,
    "عبو": 31400,
    "لعشر": 31368,
    "نخفا": 31349,
    "صبا": 31318,
    "غز": 31301,
    "مهمة": 31154,
    "لجهو": 31120,
    "لنظر": 31049,
    "يعر": 30939,
    "فغا": 30934,
    "لمفا": 30827,
    "شخا": 30794,
    "لمحتر": 30758,
    "لضر": 30698,
    "شيء": 30655,
    "نبه": 30592,
    "لمقد": 30537,
    "مختلفة": 30342,
    "شة": 30341,
    "بجا": 30317,
    "قتر": 30226,
    "تحر": 30193,
    "صيل": 29997,
    "يما": 29985,
    "لمحلي": 29901,
    "سمية": 29894,
    "لبنو": 29892,
    "مقد": 29646,
    "حسب": 29622,
    "حقق": 29620,
    "صبح": 29614,
    "يتا": 29492,
    "لعليا": 29446,
    "لعمر": 29424,
    "لنصر": 29408,
    "يك": 29377,
    "نني": 29323,
    "مفا": 29225,
    "لبعض": 29174,
    "غد": 29086,
    "نصف": 28986,
    "بقو": 28926,
    "للفر": 28904,
    "حقو": 28889,
    "يض": 28889,
    "قعا": 28878,
    "سيد": 28802,
    "بعيد": 28782,
    "قنا": 28774,
    "لغ": 28751,
    "لبنك": 28708,
    "فكر": 28650,
    "لمسلحة": 28589,
    "مسير": 28564,
    "تشا": 28553,
    "لخطو": 28512,
    "بصو": 28460,
    "تبد": 28431,
    "قسم": 28426,
    "كستا": 28424,
    "صفر": 28423,
    "ضحا": 28362,
    "لغذ": 28358,
    "ميد": 28315,
    "فيا": 28294,
    "عتبر": 28268,
    "فض": 28237,
    "جم": 28227,
    "ىيسية": 28179,
    "لمستقبل": 28082,
    "للشر": 28037,
    "حجم": 27950,
    "شعر": 27903,
    "ثو": 27719,
    "تصد": 27652,
    "حصا": 27604,
    "ثية": 27589,
    "فس": 27552,
    "لطبية": 27547,
    "لعنا": 27540,
    "لحيو": 27524,
    "تذ": 27381,
    "يتعلق": 27352,
    "لصر": 27311,
    "صلت": 27259,
    "عقب": 27236,
    "نفس": 27229,
    "لتقا": 27213,
    "تضم": 27194,
    "تكا": 27175,
    "يح": 27156,
    "لطلا": 27155,
    "قطر": 27140,
    "للغة": 27092,
    "فه": 26931,
    "سيف": 26922,
    "نقل": 26913,
    "ستكو": 26907,
    "لمستثمر": 26898,
    "فضلا": 26783,
    "لعملية": 26765,
    "لحكم": 26745,
    "تلا": 26706,
    "تكر": 26663,
    "ختا": 26622,
    "يعو": 26600,
    "عنه": 26598,
    "نى": 26592,
    "قضا": 26561,
    "معه": 26556,
    "ىلة": 26544,
    "للبنا": 26542,
    "بنك": 26466,
    "لعملا": 26454,
    "للمشا": 26280,
    "لطلب": 26220,
    "مهر": 26171,
    "بت": 26162,
    "بشر": 26094,
    "حمر": 26071,
    "طي": 26039,
    "نجو": 26032,
    "مني": 26005,
    "لتعليمية": 26003,
    "عه": 25923,
    "عنها": 25855,
    "مشتر": 25832,
    "شخص": 25814,
    "لمتميز": 25779,
    "صحيفة": 25751,
    "نيين": 25606,
    "يكن": 25580,
    "تصل": 25563,
    "لنتا": 25559,
    "تطبيق": 25529,
    "نحا": 25437,
    "شيد": 25406,
    "غلا": 25402,
    "لخير": 25383,
    "لتعر": 25352,
    "لطير": 25278,
    "لمغر": 25277,
    "لكهر": 25243,
    "تخا": 25188,
    "ليست": 25173,
    "صبحت": 25083,
    "لطلبة": 25047,
    "بيض": 24971,
    "فبر": 24965,
    "لهجو": 24946,
    "ىيسي": 24932,
    "شعا": 24922,
    "نفسها": 24798,
    "لسنة": 24686,
    "شبا": 24591,
    "بطر": 24563,
    "يثة": 24549,
    "يسر": 24546,
    "خطة": 24458,
    "لكبر": 24446,
    "لصغير": 24433,
    "بقيا": 24410,
    "لنقل": 24404,
    "ىح": 24379,
    "هن": 24371,
    "تنمية": 24364,
    "منة": 24268,
    "ستضا": 24247,
    "عتر": 24240,
    "مهم": 24208,
    "عبي": 24179,
    "محمو": 24152,
    "كنت": 24145,
    "ثنين": 24127,
    "طلب": 24118,
    "لتكنو": 24089,
    "ىيلي": 24063,
    "فحة": 24048,
    "ستعر": 24011,
    "حمن": 24004,
    "للعب": 23999,
    "نسية": 23971,
    "قبا": 23913,
    "لتقر": 23906,
    "غيا": 23854,
    "معظم": 23848,
    "محد": 23839,
    "صيا": 23825,
    "لسلطا": 23795,
    "لجمعية": 23635,
    "تعو": 23618,
    "فىة": 23617,
    "جب": 23611,
    "صحفي": 23592,
    "بمشا": 23544,
    "لفكر": 23538,
    "يعمل": 23305,
    "يضم": 23299,
    "للعا": 23234,
    "ضى": 23130,
    "نفا": 23067,
    "لمطلو": 23039,
    "لكي": 23036,
    "لملعب": 23008,
    "خسا": 22991,
    "حكا": 22983,
    "قبة": 22980,
    "سيما": 22960,
    "لتنا": 22924,
    "فنا": 22921,
    "قعة": 22912,
    "فقة": 22863,
    "يحد": 22801,
    "حصل": 22753,
    "لغة": 22740,
    "قتل": 22729,
    "ميل": 22726,
    "بني": 22714,
    "لفلسطينية": 22695,
    "لكنها": 22665,
    "جمهو": 22572,
    "سفر": 22561,
    "بحضو": 22558,
    "لفت": 22487,
    "حسين": 22453,
    "ستعا": 22405,
    "تمثل": 22394,
    "بهم": 22390,
    "يعة": 22380,
    "تجد": 22368,
    "لحز": 22333,
    "تغيير": 22237,
    "يته": 22219,
    "لنقد": 22195,
    "منظمة": 22192,
    "لخو": 22143,
    "ىيلية": 22131,
    "لميد": 22087,
    "لمحكمة": 22042,
    "يبية": 22034,
    "سطة": 21986,
    "تحمل": 21973,
    "لطفل": 21942,
    "لتنسيق": 21935,
    "لقب": 21932,
    "لخليجية": 21865,
    "ستد": 21852,
    "نجح": 21824,
    "كيلو": 21817,
    "لمعد": 21776,
    "فها": 21775,
    "حضو": 21772,
    "سها": 21766,
    "لخليجي": 21712,
    "كيف": 21709,
    "تتر": 21675,
    "شها": 21659,
    "لعقو": 21659,
    "ليل": 21648,
    "لسما": 21577,
    "عقو": 21538,
    "بحيث": 21513,
    "همة": 21488,
    "لعمليا": 21481,
    "يمثل": 21452,
    "يقين": 21425,
    "تشمل": 21410,
    "لمما": 21364,
    "فهو": 21343,
    "صفو": 21326,
    "عبيد": 21317,
    "تيب": 21313,
    "مهما": 21285,
    "بينهم": 21280,
    "لجنا": 21238,
    "فتح": 21236,
    "لتسو": 21210,
    "ستقبا": 21205,
    "لحفا": 21147,
    "لتصو": 21113,
    "صفا": 21097,
    "لفعل": 21057,
    "حميد": 20972,
    "لمهمة": 20944,
    "شكا": 20928,
    "صعو": 20870,
    "مسر": 20758,
    "لهلا": 20671,
    "غبة": 20670,
    "لضو": 20620,
    "لتحر": 20600,
    "بينها": 20558,
    "لحضو": 20553,
    "حق": 20540,
    "سبق": 20513,
    "لسكا": 20507,
    "يبلغ": 20480,
    "كيفية": 20429,
    "ضت": 20372,
    "يهد": 20366,
    "ستهلا": 20349,
    "فى": 20276,
    "للقو": 20254,
    "مكتب": 20251,
    "يعني": 20234,
    "جبا": 20190,
    "لتمو": 20172,
    "لمملكة": 20160,
    "علينا": 20154,
    "لسينما": 20153,
    "للسيا": 20133,
    "لمنشا": 20085,
    "متميز": 20078,
    "لسفر": 20071,
    "خمسة": 20026,
    "نتشا": 20013,
    "لقطر": 20004,
    "للعبة": 19998,
    "للغا": 19975,
    "تبلغ": 19941,
    "تبة": 19892,
    "حفظه": 19843,
    "بكا": 19769,
    "شتر": 19751,
    "ست": 19705,
    "طبا": 19705,
    "قين": 19696,
    "عسكر": 19616,
    "ىف": 19571,
    "جيها": 19543,
    "طية": 19542,
    "نظمة": 19542,
    "لنعيمي": 19522,
    "يسمبر": 19512,
    "ظر": 19452,
    "نستا": 19415,
    "لسيد": 19404,
    "صف": 19385,
    "لسلع": 19369,
    "بمر": 19347,
    "لظر": 19305,
    "لمنصو": 19271,
    "حذ": 19261,
    "ستشا": 19255,
    "بفا": 19247,
    "يبة": 19229,
    "ضحت": 19205,
    "كبة": 19196,
    "يصل": 19177,
    "لتجر": 19159,
    "لمتعلقة": 19146,
    "مجر": 19140,
    "بحر": 19133,
    "يجر": 19122,
    "ضه": 19121,
    "يتنا": 19112,
    "جمة": 19096,
    "لبة": 19050,
    "بيو": 19026,
    "لثقة": 19017,
    "ضها": 18996,
    "معها": 18984,
    "يمقر": 18981,
    "يمية": 18971,
    "بمد": 18964,
    "يهم": 18957,
    "تسجيل": 18949,
    "لبطا": 18934,
    "كشف": 18930,
    "متها": 18914,
    "عتقد": 18862,
    "لته": 18780,
    "ضطر": 18741,
    "فظ": 18732,
    "هيل": 18720,
    "للطا": 18708,
    "يحتا": 18684,
    "للتو": 18662,
    "سكو": 18619,
    "ضحة": 18598,
    "لمعنية": 18577,
    "بتر": 18558,
    "سنا": 18547,
    "لخسا": 18523,
    "لجمعة": 18510,
    "جنبية": 18493,
    "ليف": 18442,
    "سس": 18438,
    "قيع": 18434,
    "بتد": 18429,
    "تشكل": 18428,
    "قه": 18382,
    "لمهند": 18357,
    "تغير": 18313,
    "جنا": 18308,
    "يسعى": 18271,
    "خط": 18256,
    "قشة": 18251,
    "عيل": 18247,
    "لتسجيل": 18214,
    "مذ": 18208,
    "مجد": 18188,
    "لظا": 18171,
    "حفل": 18130,
    "كت": 18118,
    "عل": 18117,
    "لعب": 18113,
    "لثو": 18113,
    "تسعى": 18111,
    "ىيسة": 18093,
    "يقي": 18049,
    "ثما": 18023,
    "بنت": 17978,
    "عيد": 17962,
    "لشخصية": 17934,
    "لنيا": 17920,
    "سلحة": 17859,
    "جير": 17855,
    "كلمة": 17853,
    "شبكة": 17823,
    "كنا": 17805,
    "حققت": 17784,
    "ملعب": 17782,
    "تصو": 17759,
    "لقمة": 17751,
    "تمو": 17746,
    "لتقليد": 17738,
    "عليهم": 17729,
    "تسو": 17722,
    "شي": 17702,
    "خبا": 17658,
    "لتلفز": 17642,
    "يتي": 17624,
    "عيم": 17617,
    "تمكن": 17578,
    "صغير": 17569,
    "قها": 17566,
    "عطا": 17544,
    "تفعت": 17538,
    "للجا": 17508,
    "عنو": 17480,
    "شح": 17475,
    "يتها": 17472,
    "بفضل": 17459,
    "قيم": 17456,
    "فند": 17452,
    "مثا": 17443,
    "معلو": 17433,
    "يش": 17357,
    "لفلسطيني": 17340,
    "حه": 17292,
    "طين": 17221,
    "لنشا": 17212,
    "لحضا": 17212,
    "مطر": 17209,
    "جمعية": 17207,
    "ستثنا": 17206,
    "كفا": 17201,
    "جهته": 17182,
    "تحقق": 17174,
    "جمعة": 17168,
    "صند": 17167,
    "تير": 17134,
    "حملة": 17126,
    "كب": 17099,
    "لعلو": 17063,
    "لحملة": 17030,
    "لفىة": 17025,
    "ستطا": 17010,
    "لخميس": 16979,
    "مبيعا": 16954,
    "لقضية": 16951,
    "شنطن": 16948,
    "منز": 16938,
    "منتخبنا": 16934,
    "لنصف": 16886,
    "لتها": 16860,
    "لتقنية": 16856,
    "لشعبية": 16851,
    "سيتي": 16833,
    "خضر": 16829,
    "ليمن": 16810,
    "لنز": 16805,
    "قضية": 16771,
    "لتحتية": 16766,
    "حتجا": 16765,
    "ىهم": 16759,
    "للتا": 16741,
    "كس": 16701,
    "لعلمية": 16698,
    "يكا": 16694,
    "تحسين": 16662,
    "حتلا": 16653,
    "ميلا": 16638,
    "بمنا": 16635,
    "يني": 16626,
    "لعلمي": 16622,
    "لفة": 16537,
    "لسلطة": 16519,
    "متد": 16516,
    "حها": 16482,
    "علم": 16480,
    "عتد": 16459,
    "تشكيل": 16426,
    "جيه": 16424,
    "قعت": 16400,
    "مسة": 16385,
    "بنحو": 16381,
    "لمنز": 16381,
    "فذ": 16343,
    "سيس": 16335,
    "تيا": 16296,
    "ىعة": 16296,
    "حت": 16295,
    "لمستمر": 16293,
    "سعد": 16244,
    "تتضمن": 16243,
    "طمو": 16232,
    "هجو": 16217,
    "لجلسة": 16216,
    "لمنتجا": 16210,
    "ثي": 16191,
    "لعنف": 16189,
    "جذ": 16176,
    "شكل": 16143,
    "ضما": 16127,
    "لفيلم": 16127,
    "سى": 16125,
    "فهي": 16115,
    "ختبا": 16097,
    "نتظا": 16088,
    "شخصا": 16036,
    "بغد": 16025,
    "مته": 16010,
    "لتميز": 15947,
    "لمستشفى": 15942,
    "لمذ": 15941,
    "فهم": 15920,
    "عملا": 15907,
    "بلة": 15902,
    "لفن": 15878,
    "قليمية": 15878,
    "سبيل": 15873,
    "يلعب": 15866,
    "للذ": 15859,
    "لمصد": 15859,
    "مسي": 15851,
    "سبتمبر": 15840,
    "لبيت": 15793,
    "جلسة": 15768,
    "بحث": 15755,
    "شخصية": 15753,
    "فمبر": 15713,
    "لنتيجة": 15681,
    "حلو": 15653,
    "لشيخة": 15643,
    "يشكل": 15640,
    "تغا": 15630,
    "لفنو": 15629,
    "منصو": 15628,
    "شيا": 15624,
    "صعيد": 15612,
    "لمستخد": 15600,
    "هبية": 15561,
    "تفو": 15535,
    "خسر": 15524,
    "لشكر": 15500,
    "تشير": 15487,
    "نتصا": 15477,
    "خطر": 15456,
    "طى": 15438,
    "خميس": 15409,
    "لحفل": 15397,
    "سطو": 15396,
    "لخيا": 15391,
    "يشهد": 15382,
    "لبنية": 15381,
    "حث": 15379,
    "ظفين": 15358,
    "مميز": 15338,
    "لضما": 15337,
    "نصا": 15271,
    "خمس": 15261,
    "خلف": 15258,
    "فز": 15244,
    "شكر": 15207,
    "شلو": 15187,
    "مستشفى": 15187,
    "بطة": 15183,
    "ليين": 15165,
    "للمسا": 15146,
    "جمع": 15144,
    "لتشر": 15139,
    "لملك": 15132,
    "جيل": 15122,
    "بتكا": 15122,
    "سعو": 15110,
    "سجلت": 15102,
    "طير": 15098,
    "مستمر": 15090,
    "لتحو": 15084,
    "لصيا": 15075,
    "عيسى": 15040,
    "سلسلة": 15010,
    "تمت": 14987,
    "لصحي": 14978,
    "يقية": 14973,
    "لصعو": 14966,
    "جند": 14962,
    "لسبت": 14952,
    "لقيو": 14950,
    "ستة": 14943,
    "بقية": 14922,
    "طنا": 14913,
    "بنها": 14884,
    "عتقا": 14883,
    "شك": 14868,
    "للبطو": 14855,
    "خيا": 14824,
    "لخلا": 14818,
    "غذ": 14802,
    "عقا": 14802,
    "جين": 14792,
    "لمحد": 14792,
    "لحلو": 14771,
    "طمة": 14726,
    "تحتا": 14700,
    "لكلا": 14689,
    "لتنظيم": 14685,
    "لجة": 14666,
    "ثقة": 14655,
    "سيطر": 14620,
    "لقيمة": 14618,
    "نفجا": 14574,
    "مش": 14524,
    "بيت": 14514,
    "يتد": 14513,
    "للعمل": 14485,
    "ميز": 14477,
    "قصة": 14471,
    "لتخطيط": 14469,
    "يحقق": 14463,
    "سين": 14454,
    "لثنا": 14427,
    "مضيفا": 14426,
    "لخطة": 14391,
    "جح": 14371,
    "فيلم": 14363,
    "لمتخصصة": 14362,
    "سليما": 14337,
    "بطل": 14327,
    "منتجا": 14323,
    "ستغلا": 14305,
    "قصى": 14303,
    "منح": 14293,
    "لمستشا": 14291,
    "صيب": 14281,
    "نذ": 14258,
    "جلا": 14224,
    "لحكا": 14208,
    "سه": 14208,
    "فنية": 14198,
    "ليز": 14195,
    "بيىة": 14191,
    "لمنتخبا": 14187,
    "نطا": 14154,
    "جعة": 14139,
    "لصحيفة": 14129,
    "نك": 14124,
    "علما": 14121,
    "لظفر": 14117,
    "لتغيير": 14076,
    "تشجيع": 14067,
    "يخية": 14052,
    "قمة": 14032,
    "مشكلة": 14026,
    "لحقو": 13999,
    "ختلا": 13978,
    "لسير": 13978,
    "متكا": 13961,
    "بسر": 13949,
    "جهد": 13896,
    "شبه": 13837,
    "كلما": 13829,
    "لتعز": 13823,
    "هلا": 13792,
    "مبر": 13784,
    "ستهد": 13749,
    "لحمر": 13742,
    "سل": 13726,
    "ستقا": 13719,
    "قب": 13700,
    "لمطر": 13690,
    "قيمت": 13684,
    "حتما": 13681,
    "خيص": 13678,
    "للطير": 13658,
    "بيد": 13657,
    "ظيف": 13651,
    "بتا": 13643,
    "محكمة": 13630,
    "لق": 13607,
    "يحمل": 13599,
    "بضر": 13596,
    "بس": 13579,
    "متنا": 13573,
    "فيق": 13573,
    "لفضا": 13550,
    "للنا": 13529,
    "يجد": 13504,
    "قش": 13501,
    "تنو": 13493,
    "لصند": 13488,
    "تكن": 13464,
    "كيل": 13441,
    "لعمو": 13436,
    "لمبية": 13432,
    "قصا": 13428,
    "لير": 13416,
    "لتكا": 13401,
    "ينية": 13399,
    "لخضر": 13386,
    "متنو": 13356,
    "ىحة": 13352,
    "مقتل": 13341,
    "لتحا": 13323,
    "كتب": 13323,
    "لمتقد": 13311,
    "قصر": 13280,
    "نقد": 13279,
    "لشعو": 13271,
    "يفو": 13270,
    "تمنى": 13257,
    "فل": 13256,
    "لمستد": 13208,
    "سلم": 13180,
    "حقا": 13161,
    "لعقد": 13157,
    "لطبيعي": 13139,
    "للمعا": 13113,
    "متعد": 13101,
    "نع": 13071,
    "خلفا": 13069,
    "بحلو": 13057,
    "لثما": 13052,
    "لمخر": 13044,
    "جت": 13042,
    "ممثل": 13039,
    "لمشكلة": 13033,
    "محطة": 13016,
    "سبل": 13007,
    "لمنتد": 12997,
    "يملك": 12979,
    "منتصف": 12969,
    "لطبيعية": 12956,
    "بعنو": 12927,
    "جعل": 12926,
    "لحسا": 12922,
    "لمتعا": 12920,
    "مشو": 12915,
    "مح": 12908,
    "لنسخة": 12887,
    "للجو": 12880,
    "مطلع": 12879,
    "نظير": 12869,
    "متطلبا": 12868,
    "لملتقى": 12855,
    "حكم": 12851,
    "ثين": 12847,
    "بتقد": 12835,
    "فيد": 12833,
    "لمكتب": 12824,
    "لفند": 12784,
    "تشر": 12774,
    "عصر": 12772,
    "لسيطر": 12772,
    "حصو": 12767,
    "كمة": 12761,
    "متحا": 12755,
    "صقر": 12747,
    "بفو": 12737,
    "لبيىية": 12731,
    "نضما": 12729,
    "خفض": 12717,
    "ختصا": 12676,
    "لتبا": 12666,
    "لجيد": 12648,
    "نتو": 12643,
    "كه": 12628,
    "لسكر": 12605,
    "بقد": 12603,
    "قيمتها": 12600,
    "ليب": 12592,
    "لمخد": 12588,
    "خطط": 12565,
    "بلقب": 12565,
    "تستمر": 12558,
    "نتهت": 12556,
    "لقلب": 12548,
    "ليبيا": 12520,
    "قيت": 12511,
    "قليم": 12504,
    "تجمع": 12490,
    "جميعا": 12475,
    "مشق": 12462,
    "فعة": 12460,
    "نقلت": 12455,
    "عى": 12455,
    "عصا": 12432,
    "لخطا": 12426,
    "لكفا": 12416,
    "مبكر": 12412,
    "تطر": 12401,
    "للبر": 12399,
    "لمثا": 12377,
    "يفر": 12375,
    "لبيع": 12356,
    "لمتر": 12356,
    "للز": 12351,
    "طنة": 12326,
    "تتا": 12323,
    "سفير": 12320,
    "غو": 12307,
    "نشستر": 12289,
    "لسكنية": 12282,
    "قطع": 12281,
    "لتصد": 12277,
    "مبد": 12276,
    "للتعليم": 12270,
    "بجو": 12267,
    "لنفس": 12260,
    "لسلو": 12231,
    "غسطس": 12228,
    "لجنسية": 12227,
    "لسبب": 12221,
    "طيا": 12219,
    "سيع": 12213,
    "سن": 12198,
    "لسد": 12194,
    "يفا": 12162,
    "سيقى": 12149,
    "ضيا": 12112,
    "ضيين": 12095,
    "لصبا": 12093,
    "مينا": 12093,
    "لصينية": 12086,
    "لنشر": 12083,
    "كلية": 12081,
    "ستكما": 12067,
    "كتشا": 12053,
    "سمه": 12040,
    "معهد": 12038,
    "للثقا": 12030,
    "لتعد": 12009,
    "يتضمن": 12004,
    "لتمر": 12002,
    "حبا": 11999,
    "ختر": 11998,
    "تت": 11994,
    "عمو": 11988,
    "لجهة": 11971,
    "بك": 11961,
    "يحصل": 11959,
    "كيو": 11955,
    "صحة": 11952,
    "غب": 11946,
    "يستمر": 11917,
    "لعطا": 11917,
    "لضا": 11915,
    "عتمد": 11887,
    "لشكل": 11878,
    "ستقطا": 11848,
    "نكو": 11845,
    "قلة": 11829,
    "نفذ": 11815,
    "تضا": 11760,
    "يستطيع": 11745,
    "حصلت": 11719,
    "للحد": 11714,
    "لعلم": 11714,
    "للتعا": 11703,
    "لفلسطينيين": 11675,
    "بمستو": 11672,
    "صعبة": 11664,
    "صفقة": 11660,
    "لعضو": 11654,
    "تميز": 11654,
    "سىلة": 11644,
    "لكتب": 11643,
    "لمميز": 11642,
    "لكبا": 11635,
    "بينهما": 11605,
    "طلقت": 11598,
    "لمهم": 11592,
    "فهد": 11588,
    "كلبا": 11573,
    "لمبد": 11570,
    "لمحر": 11546,
    "للفو": 11540,
    "لعميد": 11526,
    "لتقنيا": 11504,
    "يشير": 11497,
    "شيىا": 11481,
    "لشد": 11456,
    "صية": 11447,
    "تج": 11428,
    "قسا": 11394,
    "لهيىا": 11392,
    "تقنية": 11388,
    "لعقيد": 11373,
    "خلي": 11353,
    "ميو": 11348,
    "كته": 11337,
    "يعتمد": 11327,
    "تفر": 11325,
    "للحصو": 11316,
    "تظهر": 11309,
    "ينتظر": 11308,
    "بعين": 11302,
    "جته": 11281,
    "لبقا": 11270,
    "لتحكيم": 11257,
    "لسيو": 11255,
    "بتعا": 11251,
    "تخر": 11228,
    "لحب": 11223,
    "غنية": 11198,
    "لفقر": 11180,
    "للمد": 11173,
    "لمتطو": 11172,
    "يشعر": 11139,
    "ينبغي": 11118,
    "لسفير": 11111,
    "مفتو": 11090,
    "تبر": 11085,
    "خلق": 11075,
    "حضا": 11068,
    "حجا": 11067,
    "قليمي": 11061,
    "جنبي": 11046,
    "لجهد": 11036,
    "تتعلق": 11021,
    "تعتمد": 11017,
    "تتنا": 11016,
    "ضعف": 11009,
    "ستجا": 11007,
    "صيف": 11004,
    "لصيف": 10999,
    "لبحو": 10984,
    "كير": 10979,
    "بنو": 10949,
    "ىنا": 10937,
    "فلة": 10929,
    "لمسلمين": 10923,
    "ظف": 10921,
    "تفعيل": 10899,
    "بمنطقة": 10885,
    "فن": 10880,
    "هند": 10880,
    "لمحمو": 10874,
    "تخذ": 10864,
    "شتبا": 10858,
    "لختا": 10834,
    "كشفت": 10832,
    "لكشف": 10831,
    "لمفر": 10817,
    "مستشا": 10801,
    "بجر": 10798,
    "لمتجد": 10796,
    "تقييم": 10794,
    "خليل": 10780,
    "جعت": 10780,
    "غلب": 10773,
    "تبط": 10768,
    "هلة": 10762,
    "لتكو": 10762,
    "نجم": 10760,
    "يجعل": 10752,
    "للتر": 10746,
    "يفيد": 10739,
    "لضغط": 10738,
    "تل": 10732,
    "لشخصيا": 10699,
    "يحة": 10683,
    "طبيعة": 10676,
    "يعتقد": 10675,
    "فىا": 10664,
    "لعصر": 10659,
    "ففي": 10656,
    "يضيف": 10654,
    "بته": 10654,
    "مكو": 10646,
    "تلقى": 10642,
    "كلها": 10613,
    "ظهو": 10603,
    "يحر": 10588,
    "طلبا": 10584,
    "لصحر": 10581,
    "يصا": 10569,
    "قصير": 10569,
    "ليكو": 10557,
    "يتحد": 10540,
    "حنا": 10532,
    "مغا": 10527,
    "لصيد": 10527,
    "ىن": 10527,
    "كيين": 10518,
    "يجو": 10517,
    "لحقيقة": 10516,
    "تتمتع": 10514,
    "يعكس": 10508,
    "معهم": 10498,
    "يظهر": 10490,
    "منو": 10485,
    "فعل": 10481,
    "لحل": 10469,
    "شجا": 10459,
    "لس": 10450,
    "لتصر": 10446,
    "طلق": 10430,
    "لخصو": 10427,
    "تستخد": 10423,
    "سقو": 10420,
    "حبة": 10407,
    "تكنو": 10402,
    "ينو": 10395,
    "عجا": 10380,
    "حيو": 10331,
    "نفو": 10326,
    "تضمن": 10321,
    "يمر": 10306,
    "شعو": 10302,
    "لطبي": 10300,
    "للمبا": 10299,
    "لمضا": 10298,
    "يعز": 10290,
    "قتها": 10289,
    "تصميم": 10286,
    "تنطلق": 10285,
    "لتصل": 10277,
    "لبلو": 10274,
    "شخصيا": 10265,
    "ىتما": 10237,
    "لمجتمعية": 10214,
    "ستىنا": 10204,
    "بمثا": 10204,
    "تقع": 10181,
    "مستقبل": 10173,
    "لمقيمين": 10169,
    "منع": 10144,
    "متقد": 10142,
    "لسجن": 10141,
    "ثت": 10135,
    "معسكر": 10124,
    "شغا": 10119,
    "لفتا": 10118,
    "بمعد": 10115,
    "صفة": 10108,
    "نبين": 10092,
    "لنفا": 10085,
    "لشهير": 10083,
    "لصحفي": 10069,
    "ميثي": 10063,
    "لمستقبلية": 10046,
    "لميز": 10043,
    "نفسهم": 10037,
    "لفىا": 10035,
    "قلب": 10013,
    "لمتهم": 9992,
    "لتهد": 9990,
    "سند": 9980,
    "كلة": 9979,
    "قبو": 9946,
    "فلسطين": 9939,
    "لعبا": 9930,
    "لصعيد": 9920,
    "سيين": 9903,
    "للشو": 9885,
    "حصد": 9880,
    "لمهير": 9878,
    "سميا": 9864,
    "نسبته": 9858,
    "لحق": 9856,
    "ستطلا": 9838,
    "لمفتو": 9834,
    "صلى": 9833,
    "لتكر": 9827,
    "لهجما": 9806,
    "قته": 9798,
    "بيين": 9798,
    "لقصير": 9789,
    "يبي": 9773,
    "لصحا": 9768,
    "منهما": 9765,
    "فيهية": 9763,
    "لحة": 9761,
    "مفهو": 9758,
    "لنجو": 9754,
    "شير": 9745,
    "سبب": 9744,
    "لثر": 9743,
    "تتم": 9738,
    "غة": 9737,
    "فيصل": 9735,
    "هية": 9734,
    "مهد": 9726,
    "نجد": 9712,
    "لمستهلك": 9695,
    "لخيو": 9688,
    "صيلة": 9676,
    "لمبيا": 9659,
    "حقيقية": 9654,
    "ملي": 9651,
    "لقليلة": 9638,
    "محر": 9629,
    "متطو": 9618,
    "لقنا": 9617,
    "يمو": 9600,
    "هبي": 9594,
    "لخط": 9578,
    "خلت": 9562,
    "يقر": 9560,
    "لمقتر": 9555,
    "عمله": 9553,
    "بحو": 9550,
    "شملت": 9546,
    "خطير": 9540,
    "مستخد": 9536,
    "قيق": 9535,
    "لتذ": 9519,
    "لقسم": 9517,
    "ضين": 9514,
    "لشيو": 9513,
    "لتين": 9508,
    "عبيه": 9505,
    "يستخد": 9486,
    "مصلحة": 9470,
    "لقيم": 9467,
    "ملو": 9465,
    "لبتر": 9453,
    "جهت": 9451,
    "يلتقي": 9439,
    "تبطة": 9416,
    "عشا": 9391,
    "لفصل": 9389,
    "لليلة": 9378,
    "جنتيني": 9375,
    "نظم": 9349,
    "للمنتخب": 9342,
    "ستبد": 9328,
    "طهر": 9325,
    "لتتو": 9313,
    "ميم": 9309,
    "فعت": 9299,
    "طه": 9282,
    "هكذ": 9278,
    "تيجي": 9273,
    "لتصفيا": 9273,
    "بمسا": 9269,
    "تشغيل": 9266,
    "لكعبي": 9257,
    "لتنو": 9256,
    "تستهد": 9250,
    "تش": 9248,
    "مصطفى": 9243,
    "ستحو": 9241,
    "مبنى": 9236,
    "بفر": 9229,
    "ستقلا": 9226,
    "نقو": 9222,
    "سينا": 9216,
    "لكمبيو": 9214,
    "شىين": 9198,
    "ممن": 9172,
    "لقبض": 9171,
    "نهما": 9168,
    "بثلا": 9150,
    "لصيني": 9146,
    "فسية": 9133,
    "يتعر": 9130,
    "لشفا": 9123,
    "تسهم": 9109,
    "لهما": 9102,
    "محطا": 9094,
    "يسهم": 9078,
    "لسعر": 9070,
    "لصحف": 9069,
    "لشعبي": 9065,
    "تعكس": 9054,
    "تسبب": 9052,
    "معينة": 9040,
    "مجتمع": 9040,
    "تبقى": 9039,
    "منتخبا": 9039,
    "لخطط": 9039,
    "معتبر": 9033,
    "منصة": 9030,
    "بعضها": 9029,
    "شىة": 9008,
    "حصة": 8995,
    "منشا": 8988,
    "ميين": 8967,
    "لطب": 8967,
    "عتز": 8926,
    "لهز": 8922,
    "للشبا": 8895,
    "جهها": 8894,
    "جحة": 8893,
    "سيلة": 8892,
    "قتا": 8869,
    "يمي": 8866,
    "هة": 8865,
    "ضيفه": 8863,
    "محو": 8862,
    "صعد": 8860,
    "يبقى": 8856,
    "لفيد": 8845,
    "يسمح": 8841,
    "يخو": 8841,
    "يتعا": 8840,
    "بح": 8837,
    "لمختصة": 8827,
    "ضعت": 8822,
    "منظو": 8804,
    "نسحا": 8802,
    "للخد": 8790,
    "تمكنت": 8773,
    "صعب": 8771,
    "يتمتع": 8767,
    "لمتمر": 8758,
    "يتجا": 8745,
    "حثين": 8743,
    "تلو": 8735,
    "لنص": 8735,
    "بنجا": 8726,
    "ليلة": 8717,
    "لمعهد": 8716,
    "يتطلب": 8714,
    "تجهيز": 8711,
    "نطلقت": 8709,
    "خي": 8707,
    "للمنا": 8704,
    "لطعا": 8681,
    "لحصن": 8669,
    "يقع": 8669,
    "لمعتمد": 8662,
    "سبعة": 8643,
    "لمصلحة": 8640,
    "لقذ": 8635,
    "ثمن": 8618,
    "محلية": 8611,
    "لكننا": 8602,
    "هبو": 8594,
    "ضم": 8586,
    "ملحو": 8568,
    "طلبة": 8564,
    "لمبكر": 8560,
    "فما": 8557,
    "لمتد": 8552,
    "يمن": 8539,
    "لشخص": 8534,
    "ثبا": 8525,
    "ستيعا": 8523,
    "لمسير": 8520,
    "نخبة": 8508,
    "خص": 8506,
    "ظيفة": 8500,
    "تيجيا": 8483,
    "همت": 8482,
    "لضفة": 8481,
    "قليلة": 8481,
    "تفعة": 8481,
    "سمة": 8477,
    "لتسا": 8463,
    "لتفكير": 8457,
    "لجيل": 8447,
    "نخفض": 8438,
    "سني": 8427,
    "لمنظما": 8423,
    "نتحا": 8420,
    "تسر": 8411,
    "قعها": 8397,
    "بمحا": 8392,
    "لمشهد": 8390,
    "لحقيقي": 8385,
    "مسلسل": 8377,
    "علو": 8375,
    "لحقيقية": 8358,
    "متز": 8348,
    "حقيقة": 8347,
    "ليمني": 8344,
    "حظ": 8340,
    "لمبيعا": 8335,
    "متخصصة": 8327,
    "شحين": 8327,
    "مثير": 8322,
    "تتجا": 8321,
    "لتصميم": 8320,
    "لفيفا": 8319,
    "جىين": 8309,
    "لبيو": 8306,
    "مشد": 8304,
    "لمتنا": 8303,
    "صحية": 8300,
    "لسن": 8296,
    "لمستهلكين": 8296,
    "ضبا": 8277,
    "تتميز": 8272,
    "جلسا": 8271,
    "بحق": 8265,
    "ضيع": 8255,
    "مجهو": 8247,
    "يصبح": 8244,
    "لمسلسل": 8237,
    "لتعبير": 8237,
    "لنفسية": 8227,
    "لعلما": 8207,
    "تشو": 8203,
    "حمل": 8194,
    "جعا": 8191,
    "لطبيعة": 8187,
    "نسو": 8187,
    "جنيه": 8183,
    "بكين": 8166,
    "ليصل": 8156,
    "بقين": 8153,
    "طها": 8153,
    "لمتز": 8148,
    "لطمو": 8144,
    "نجر": 8144,
    "لنجم": 8133,
    "نبها": 8133,
    "مىا": 8129,
    "حيل": 8103,
    "يطة": 8099,
    "للقيا": 8098,
    "لمغا": 8092,
    "ستقبل": 8090,
    "ستعما": 8089,
    "ظفي": 8084,
    "متلا": 8074,
    "ضغط": 8054,
    "لحصا": 8044,
    "لصعب": 8037,
    "طلع": 8035,
    "ليمنية": 8034,
    "للمجلس": 8026,
    "لحظة": 8026,
    "سيخ": 8004,
    "لمغفو": 7999,
    "لج": 7977,
    "يتيح": 7976,
    "عنصر": 7975,
    "ببر": 7967,
    "تحظى": 7963,
    "خصة": 7963,
    "تيين": 7960,
    "طيب": 7957,
    "لسفا": 7953,
    "مبلغ": 7952,
    "لخمس": 7920,
    "كله": 7918,
    "يبر": 7913,
    "تهما": 7912,
    "لليل": 7897,
    "لضغو": 7896,
    "لفين": 7895,
    "لسعا": 7894,
    "يعيش": 7890,
    "لتطبيق": 7889,
    "نجحت": 7883,
    "لتضخم": 7873,
    "لمنتظر": 7867,
    "يشمل": 7866,
    "تبين": 7863,
    "لتقييم": 7859,
    "لبية": 7859,
    "عمد": 7855,
    "يكر": 7851,
    "لبصر": 7851,
    "محتر": 7847,
    "نم": 7844,
    "نتعا": 7833,
    "فضا": 7827,
    "لقتا": 7823,
    "لمخصصة": 7823,
    "ليغلق": 7819,
    "لتغير": 7818,
    "سليم": 7805,
    "بصفة": 7799,
    "ىتلا": 7797,
    "لمن": 7777,
    "لتشغيل": 7765,
    "طب": 7762,
    "غضو": 7761,
    "لنبا": 7757,
    "ثيق": 7747,
    "لتقى": 7747,
    "ضبط": 7745,
    "فشل": 7732,
    "متفر": 7729,
    "لخطر": 7727,
    "لمتسا": 7721,
    "فمن": 7721,
    "ثلة": 7713,
    "جمل": 7713,
    "يخر": 7712,
    "بقر": 7705,
    "هجما": 7694,
    "تتمثل": 7694,
    "بجد": 7686,
    "تلبية": 7680,
    "لهر": 7679,
    "لمهنية": 7671,
    "همها": 7666,
    "ىقين": 7658,
    "مثلا": 7649,
    "لبعثة": 7648,
    "لست": 7644,
    "كهر": 7643,
    "فقر": 7643,
    "مجلة": 7637,
    "تقل": 7608,
    "لمفو": 7603,
    "شهو": 7601,
    "لمتنو": 7592,
    "شفا": 7591,
    "تصبح": 7585,
    "لشمس": 7580,
    "حم": 7575,
    "متحد": 7568,
    "معنو": 7566,
    "لشبكة": 7565,
    "لمعسكر": 7563,
    "يتية": 7562,
    "كليا": 7557,
    "تشيلسي": 7550,
    "لمجر": 7544,
    "لمكو": 7526,
    "جسد": 7524,
    "لمبي": 7524,
    "لمتظا": 7520,
    "لنهضة": 7520,
    "نسب": 7519,
    "غلق": 7519,
    "بنتيجة": 7508,
    "لصلا": 7503,
    "لشحي": 7497,
    "للجميع": 7486,
    "خين": 7478,
    "تقنيا": 7477,
    "لسفن": 7476,
    "بمقر": 7472,
    "بكر": 7464,
    "يقل": 7454,
    "يشر": 7453,
    "متسا": 7450,
    "ىيسا": 7446,
    "بنفس": 7440,
    "لتبر": 7439,
    "جميلة": 7426,
    "تسليم": 7419,
    "قى": 7416,
    "لمتحر": 7404,
    "لغو": 7398,
    "جى": 7397,
    "ثيقة": 7391,
    "لسلبية": 7370,
    "معي": 7368,
    "نفسي": 7368,
    "لضبا": 7367,
    "لممكن": 7363,
    "للتد": 7362,
    "متتا": 7355,
    "كها": 7355,
    "يخي": 7346,
    "لصعبة": 7336,
    "بضة": 7336,
    "ثمة": 7333,
    "بسا": 7322,
    "لتعو": 7321,
    "بنظا": 7313,
    "لمستشفيا": 7303,
    "فيتش": 7300,
    "ممثلي": 7297,
    "لتحضير": 7295,
    "فني": 7292,
    "هين": 7287,
    "نصيب": 7260,
    "حتا": 7257,
    "تطا": 7254,
    "خصا": 7243,
    "تسهيل": 7241,
    "صنة": 7236,
    "عته": 7236,
    "جن": 7232,
    "لشها": 7229,
    "لفتيا": 7224,
    "لكلية": 7220,
    "لمبنى": 7219,
    "فتتح": 7217,
    "صنع": 7215,
    "ستما": 7214,
    "يصد": 7196,
    "نخفضت": 7193,
    "علية": 7193,
    "محليا": 7187,
    "لغنا": 7187,
    "ليفر": 7179,
    "لمجتمعا": 7175,
    "شى": 7170,
    "لمسجد": 7162,
    "لمة": 7162,
    "لتفو": 7156,
    "بتها": 7155,
    "لهبو": 7155,
    "تتيح": 7153,
    "لمتهمين": 7151,
    "لتلا": 7149,
    "عمه": 7149,
    "قلا": 7146,
    "ممكن": 7144,
    "يجي": 7137,
    "للحو": 7136,
    "قصيد": 7132,
    "لفسا": 7132,
    "فجر": 7131,
    "تضمنت": 7130,
    "يبحث": 7127,
    "طبقا": 7122,
    "لغد": 7118,
    "سسي": 7110,
    "يخد": 7105,
    "هبة": 7099,
    "نتما": 7099,
    "يضمن": 7085,
    "كتها": 7081,
    "تسير": 7080,
    "بعضهم": 7080,
    "لصحيح": 7078,
    "للكتا": 7077,
    "نتبا": 7076,
    "بخصو": 7075,
    "نتهى": 7075,
    "قما": 7068,
    "كلم": 7057,
    "لضيا": 7050,
    "نقص": 7047,
    "لصحفيين": 7039,
    "فهذ": 7036,
    "عهم": 7033,
    "كميا": 7027,
    "حقة": 7018,
    "لطبع": 7017,
    "بغر": 7007,
    "حينما": 7006,
    "صنعا": 7006,
    "يتهم": 7004,
    "تحسن": 6993,
    "لنفطية": 6989,
    "محل": 6986,
    "مثلما": 6977,
    "لسعد": 6976,
    "تنتهي": 6973,
    "تسد": 6971,
    "حسم": 6967,
    "لسعي": 6964,
    "يتمكن": 6961,
    "حظا": 6955,
    "يند": 6954,
    "حفظ": 6951,
    "للحكو": 6945,
    "نظمت": 6941,
    "كيب": 6937,
    "بصد": 6933,
    "للجمهو": 6929,
    "لنفسي": 6928,
    "لتنظيمية": 6927,
    "علمية": 6923,
    "لكند": 6913,
    "جلة": 6901,
    "نسخة": 6900,
    "تسلم": 6888,
    "مجها": 6888,
    "لشيء": 6886,
    "تحتو": 6886,
    "فحسب": 6881,
    "ىعا": 6878,
    "بمختلف": 6877,
    "يحتل": 6876,
    "يضة": 6873,
    "نفر": 6872,
    "تبني": 6871,
    "حف": 6870,
    "بكثير": 6861,
    "نتز": 6859,
    "قيد": 6846,
    "خلو": 6837,
    "بيل": 6835,
    "تلفز": 6829,
    "تخصيص": 6826,
    "نير": 6818,
    "بعثة": 6803,
    "قتنا": 6801,
    "سفا": 6795,
    "لقلق": 6788,
    "شيو": 6787,
    "للتعر": 6787,
    "ستقو": 6786,
    "لتجد": 6779,
    "لعل": 6773,
    "بصر": 6773,
    "يكفي": 6771,
    "مستعد": 6763,
    "جهتها": 6758,
    "لمعنو": 6757,
    "تمتلك": 6753,
    "يتعين": 6751,
    "لعبة": 6747,
    "مقو": 6744,
    "فصا": 6743,
    "تستطيع": 6738,
    "ىقة": 6738,
    "يقها": 6732,
    "يحظى": 6732,
    "لعيا": 6732,
    "تك": 6725,
    "عثر": 6703,
    "متهم": 6690,
    "عملها": 6688,
    "مخر": 6685,
    "منصب": 6678,
    "هج": 6658,
    "مضيفه": 6655,
    "لصغا": 6651,
    "جبل": 6643,
    "قص": 6642,
    "يستو": 6642,
    "ىط": 6638,
    "ستخبا": 6627,
    "قفت": 6626,
    "حمة": 6622,
    "لصف": 6621,
    "قفز": 6620,
    "تملك": 6618,
    "قعه": 6617,
    "تتطلب": 6612,
    "مند": 6611,
    "لتنمو": 6602,
    "تعهد": 6600,
    "لبطل": 6590,
    "ثبت": 6579,
    "نصر": 6578,
    "كمية": 6576,
    "تكلفة": 6575,
    "حتكا": 6573,
    "للحا": 6568,
    "بمقد": 6566,
    "عمها": 6555,
    "ىمين": 6544,
    "مقتر": 6542,
    "تلعب": 6535,
    "طنه": 6534,
    "بشد": 6525,
    "مفر": 6524,
    "بمبا": 6523,
    "لحذ": 6522,
    "لخز": 6522,
    "تخد": 6510,
    "سحب": 6510,
    "لمطو": 6506,
    "عتذ": 6505,
    "غبا": 6497,
    "لليا": 6496,
    "ستها": 6495,
    "لخمسة": 6492,
    "خليجي": 6491,
    "صحيح": 6480,
    "للقطا": 6479,
    "نبعا": 6479,
    "جبر": 6479,
    "بتة": 6475,
    "لقصة": 6472,
    "للهيىة": 6466,
    "فتها": 6460,
    "كند": 6457,
    "لفلا": 6455,
    "يضع": 6452,
    "لليبي": 6451,
    "تسمح": 6449,
    "تحفيز": 6442,
    "نيل": 6434,
    "يمه": 6434,
    "لعيد": 6433,
    "بيتا": 6430,
    "لجسم": 6430,
    "تة": 6428,
    "فقت": 6428,
    "تعتز": 6419,
    "لمحيط": 6418,
    "مبو": 6406,
    "عفا": 6403,
    "لجغر": 6402,
    "طبية": 6399,
    "صغر": 6398,
    "تظا": 6396,
    "ثيو": 6384,
    "لبت": 6383,
    "قيمته": 6372,
    "مله": 6366,
    "ستحقا": 6364,
    "لغز": 6354,
    "بنية": 6353,
    "طعا": 6349,
    "بخا": 6341,
    "نقلا": 6341,
    "تنفذ": 6328,
    "لملكية": 6326,
    "شن": 6325,
    "نفصا": 6313,
    "هلية": 6312,
    "سيقية": 6312,
    "لتشكيلة": 6310,
    "لمحتلة": 6308,
    "لمحطة": 6302,
    "يتميز": 6301,
    "بتنفيذ": 6293,
    "ييس": 6290,
    "مستقبلا": 6287,
    "بلس": 6285,
    "فتة": 6282,
    "للتنمية": 6273,
    "للحظة": 6264,
    "شمي": 6253,
    "لمشكلا": 6248,
    "صي": 6245,
    "ميسي": 6245,
    "فضت": 6220,
    "مشيد": 6212,
    "حققه": 6210,
    "يعقد": 6208,
    "عف": 6202,
    "لجذ": 6191,
    "فصل": 6189,
    "لبعيد": 6189,
    "ستنا": 6184,
    "لمتعد": 6179,
    "لبيضا": 6177,
    "خفا": 6173,
    "نقر": 6172,
    "لحين": 6172,
    "يعها": 6169,
    "لكما": 6165,
    "لتفتيش": 6164,
    "لفحص": 6153,
    "تضيف": 6151,
    "لكلمة": 6151,
    "ضعها": 6143,
    "لمشو": 6126,
    "جيو": 6125,
    "تنظم": 6122,
    "ستحد": 6118,
    "ستير": 6110,
    "لتظا": 6110,
    "لستة": 6109,
    "للخيو": 6107,
    "سهلة": 6106,
    "مصير": 6106,
    "تمتد": 6105,
    "فظا": 6097,
    "فته": 6095,
    "تختلف": 6087,
    "سمها": 6078,
    "بعر": 6076,
    "طع": 6076,
    "يسجل": 6073,
    "لنمسا": 6066,
    "لتصا": 6060,
    "نيكو": 6058,
    "ينظر": 6053,
    "مضى": 6053,
    "يلية": 6050,
    "لحجم": 6046,
    "صت": 6045,
    "لجميلة": 6044,
    "فيو": 6042,
    "فيلا": 6041,
    "سكنية": 6039,
    "للحفا": 6038,
    "نجلتر": 6035,
    "علة": 6035,
    "تتخذ": 6033,
    "لحجا": 6033,
    "ملتقى": 6028,
    "لكتبي": 6025,
    "لحظ": 6021,
    "تعلم": 6016,
    "تمهيد": 6015,
    "طلسي": 6012,
    "لطفو": 6007,
    "حثا": 6000,
    "لمنشو": 5999,
    "تتعا": 5992,
    "لنحو": 5988,
    "سمنت": 5985,
    "خلفية": 5984,
    "لسند": 5984,
    "طلبت": 5982,
    "ستغر": 5980,
    "قهم": 5977,
    "لعبو": 5976,
    "ميله": 5974,
    "هله": 5974,
    "ظلت": 5972,
    "ضغو": 5968,
    "لمعلا": 5968,
    "ثبتت": 5963,
    "نص": 5963,
    "لطبيب": 5958,
    "نته": 5957,
    "قتلو": 5952,
    "للمحا": 5948,
    "متيا": 5944,
    "لتما": 5942,
    "بيب": 5942,
    "عمق": 5939,
    "مستد": 5938,
    "طفل": 5934,
    "ليلا": 5932,
    "لغيا": 5932,
    "لقبيسي": 5931,
    "ختتم": 5930,
    "للعر": 5928,
    "يقف": 5912,
    "لتيا": 5911,
    "شكلت": 5908,
    "عجز": 5897,
    "لتشا": 5894,
    "لمنتج": 5891,
    "يجمع": 5891,
    "تعيين": 5891,
    "ييد": 5891,
    "نهى": 5887,
    "ستيطا": 5882,
    "لكنني": 5881,
    "يطر": 5881,
    "سيقو": 5879,
    "بمعا": 5877,
    "يستحق": 5873,
    "يخص": 5871,
    "سبع": 5869,
    "نعر": 5865,
    "تعبير": 5862,
    "لجميل": 5856,
    "عتها": 5853,
    "لجمعيا": 5842,
    "لسفينة": 5835,
    "لتجهيز": 5835,
    "ملف": 5833,
    "يعملو": 5828,
    "بتطو": 5828,
    "سنغا": 5825,
    "نعقا": 5825,
    "تخفيض": 5822,
    "يثا": 5822,
    "نيخ": 5808,
    "تبذ": 5798,
    "ببطو": 5785,
    "سقط": 5780,
    "لعيش": 5780,
    "حظر": 5776,
    "حيم": 5770,
    "شعبية": 5766,
    "فنيا": 5764,
    "نسعى": 5758,
    "لنخيل": 5757,
    "طعة": 5754,
    "يفة": 5753,
    "بتنظيم": 5749,
    "نجز": 5746,
    "عتين": 5746,
    "متن": 5743,
    "كلو": 5735,
    "عكس": 5734,
    "قطعة": 5733,
    "يسو": 5733,
    "يتز": 5730,
    "لحميد": 5730,
    "متمنيا": 5727,
    "تغلب": 5725,
    "نفى": 5723,
    "لقى": 5712,
    "لهجن": 5711,
    "تعليم": 5706,
    "ملعبه": 5706,
    "لصلة": 5703,
    "لينا": 5702,
    "لضحا": 5701,
    "تعيش": 5701,
    "فعه": 5699,
    "بسو": 5698,
    "لممثل": 5698,
    "تضر": 5696,
    "لمهني": 5695,
    "لتصنيف": 5693,
    "غنا": 5686,
    "ينز": 5677,
    "جميل": 5676,
    "مقعد": 5671,
    "صفحة": 5668,
    "قفا": 5658,
    "فلم": 5657,
    "ممثلة": 5654,
    "قلو": 5653,
    "نظيفة": 5650,
    "لتسهيلا": 5649,
    "بسيطة": 5646,
    "قليلا": 5638,
    "عمة": 5636,
    "نيش": 5632,
    "لجسد": 5632,
    "لشحن": 5630,
    "ضمت": 5629,
    "حملا": 5626,
    "ضعا": 5623,
    "شيح": 5622,
    "تجعل": 5618,
    "غبين": 5614,
    "لحلقة": 5612,
    "تقليل": 5611,
    "حى": 5611,
    "يتقد": 5608,
    "لسهم": 5603,
    "شكو": 5602,
    "قلت": 5600,
    "لقبا": 5594,
    "للصحفيين": 5593,
    "لعنصر": 5593,
    "فلو": 5591,
    "كسر": 5591,
    "جهه": 5588,
    "تفقد": 5586,
    "بسهو": 5569,
    "كلمته": 5568,
    "يحتو": 5567,
    "لتحكم": 5565,
    "سته": 5562,
    "لقنو": 5561,
    "لسلة": 5560,
    "يمتلك": 5556,
    "لقصيد": 5556,
    "بصا": 5552,
    "منتد": 5549,
    "مسجلا": 5543,
    "لجمر": 5542,
    "تصفيا": 5539,
    "لقتل": 5539,
    "صفها": 5538,
    "يطلق": 5536,
    "تضع": 5536,
    "تقليد": 5535,
    "قيين": 5529,
    "سجله": 5527,
    "يتصد": 5525,
    "يكل": 5524,
    "مسجد": 5517,
    "للحر": 5514,
    "بعو": 5512,
    "لتجز": 5506,
    "شتى": 5503,
    "لمبلغ": 5500,
    "ملك": 5498,
    "صفه": 5492,
    "فعها": 5490,
    "لسعيد": 5483,
    "معنى": 5473,
    "لمتكا": 5472,
    "تصنيف": 5472,
    "لتلك": 5470,
    "تعبر": 5470,
    "لبيىي": 5469,
    "ليهو": 5468,
    "لحي": 5466,
    "حصر": 5465,
    "لعملة": 5461,
    "سك": 5457,
    "لصفر": 5452,
    "سفة": 5450,
    "نتقد": 5445,
    "للقر": 5443,
    "يليو": 5438,
    "قنو": 5434,
    "تنتظر": 5429,
    "لبضا": 5421,
    "لمنع": 5421,
    "غتيا": 5420,
    "طيبة": 5416,
    "للهو": 5410,
    "لظهو": 5405,
    "يسير": 5398,
    "لحلم": 5396,
    "يط": 5396,
    "ليسا": 5395,
    "طبيعية": 5390,
    "يخه": 5383,
    "بحد": 5382,
    "مسبو": 5382,
    "يمثلو": 5377,
    "سهو": 5371,
    "نيجير": 5368,
    "تقف": 5368,
    "عيو": 5367,
    "مجمع": 5359,
    "تتحد": 5358,
    "فعلا": 5358,
    "لتشجيع": 5356,
    "خية": 5356,
    "تقليص": 5352,
    "شين": 5340,
    "مهند": 5338,
    "لمثل": 5334,
    "تطلعا": 5330,
    "لتعليمي": 5324,
    "لقصر": 5322,
    "شقا": 5317,
    "عملت": 5317,
    "لسينا": 5313,
    "نعا": 5312,
    "لتحقيقا": 5308,
    "ىشة": 5305,
    "لبنى": 5300,
    "للسبا": 5297,
    "للبيىة": 5296,
    "يعبر": 5294,
    "لليبية": 5291,
    "شعب": 5290,
    "يلز": 5290,
    "لقطع": 5289,
    "تيو": 5289,
    "لنيل": 5287,
    "فخر": 5270,
    "للكر": 5265,
    "نعم": 5263,
    "لملو": 5258,
    "جنتين": 5258,
    "ليهم": 5256,
    "مسعو": 5247,
    "كمل": 5246,
    "يجية": 5245,
    "مشكلا": 5240,
    "متحف": 5231,
    "ضخمة": 5224,
    "للتطو": 5223,
    "لتمثيل": 5219,
    "للسو": 5219,
    "هنة": 5217,
    "يعية": 5210,
    "لقمر": 5203,
    "سمير": 5202,
    "للعلا": 5188,
    "جسو": 5185,
    "لشخصي": 5183,
    "لكم": 5177,
    "فنو": 5174,
    "خبير": 5171,
    "تلقت": 5170,
    "سطى": 5164,
    "حفا": 5160,
    "كلينتو": 5159,
    "سيز": 5158,
    "حتو": 5157,
    "بيتر": 5157,
    "كتسا": 5156,
    "ثها": 5156,
    "لتهم": 5155,
    "للعد": 5147,
    "عبة": 5144,
    "معنا": 5141,
    "ستقد": 5140,
    "تن": 5135,
    "فهنا": 5132,
    "لميلا": 5129,
    "خيو": 5124,
    "ظها": 5124,
    "لتحسين": 5123,
    "تفيد": 5123,
    "تلقي": 5123,
    "فيع": 5114,
    "نعمل": 5113,
    "ستشهد": 5106,
    "جنيف": 5106,
    "عتا": 5095,
    "فسو": 5095,
    "قبيل": 5093,
    "لمتصد": 5086,
    "لمتمثلة": 5086,
    "لمهد": 5079,
    "تجنب": 5076,
    "فقه": 5070,
    "همين": 5068,
    "لتفر": 5068,
    "مسلحين": 5068,
    "نطلق": 5063,
    "تعني": 5061,
    "لحملا": 5058,
    "تسعة": 5058,
    "لمعو": 5057,
    "لمستجد": 5057,
    "تكز": 5057,
    "نعكا": 5057,
    "بحثا": 5055,
    "ينتهي": 5054,
    "نسيا": 5054,
    "نسبيا": 5052,
    "ستمتا": 5051,
    "تتعر": 5048,
    "متفا": 5047,
    "يهو": 5047,
    "يكي": 5046,
    "حثو": 5045,
    "للشا": 5044,
    "فسه": 5043,
    "نتمنى": 5040,
    "لشمسية": 5032,
    "لعهد": 5031,
    "ليما": 5028,
    "عفة": 5027,
    "تشكيلة": 5022,
    "قعية": 5021,
    "نكا": 5020,
    "حسني": 5018,
    "تمنح": 5017,
    "لمكر": 5012,
    "تطبيقا": 5009,
    "مفيد": 5007,
    "نسمة": 5006,
    "لطيو": 5003,
    "ظفا": 5003,
    "بسيا": 5002,
    "لمحيطة": 5001,
    "لجنسيا": 4997,
    "لمصو": 4995,
    "نف": 4994,
    "لمنتجة": 4988,
    "ملمو": 4987,
    "لمستفيد": 4983,
    "سكند": 4981,
    "لعكس": 4981,
    "ينطلق": 4976,
    "جلو": 4976,
    "بتهمة": 4971,
    "عتقلت": 4967,
    "لمتبا": 4966,
    "لضيو": 4960,
    "تهن": 4960,
    "عثما": 4956,
    "كسا": 4955,
    "لخبير": 4954,
    "يتشا": 4954,
    "يمها": 4952,
    "تعقد": 4952,
    "تينية": 4948,
    "حتل": 4946,
    "بند": 4941,
    "هشا": 4941,
    "فجا": 4940,
    "يجين": 4938,
    "لنقطة": 4933,
    "لملف": 4933,
    "معبر": 4929,
    "للسلا": 4926,
    "حظو": 4924,
    "يختلف": 4922,
    "لغير": 4921,
    "لعبد": 4920,
    "نفتا": 4920,
    "سينما": 4919,
    "هيا": 4918,
    "تخفيف": 4913,
    "لعينا": 4912,
    "حلم": 4911,
    "سقف": 4909,
    "لتصبح": 4904,
    "يمز": 4902,
    "شحا": 4898,
    "لمستهد": 4893,
    "مكر": 4885,
    "ستفتا": 4885,
    "ليصبح": 4884,
    "قتة": 4882,
    "نسجا": 4881,
    "ستيا": 4880,
    "ينج": 4879,
    "لمكسيك": 4878,
    "للما": 4869,
    "يستضيف": 4861,
    "حجز": 4858,
    "تحليل": 4856,
    "لتعلم": 4855,
    "قبين": 4851,
    "شبكا": 4849,
    "شمل": 4843,
    "حلقة": 4842,
    "نخر": 4842,
    "لنظم": 4840,
    "ثمر": 4832,
    "سيقا": 4832,
    "تكمن": 4823,
    "فحص": 4821,
    "نتفا": 4818,
    "لتطبيقا": 4816,
    "تعليمية": 4816,
    "تحقيقا": 4811,
    "يسمى": 4811,
    "حلت": 4808,
    "يمكنه": 4808,
    "لصفقة": 4807,
    "للمشر": 4797,
    "لصفو": 4795,
    "عنهم": 4795,
    "لعقل": 4791,
    "خز": 4789,
    "لمتشد": 4789,
    "طنو": 4787,
    "معين": 4786,
    "لطقس": 4785,
    "خطف": 4785,
    "صلي": 4784,
    "غلبية": 4784,
    "نتنيا": 4783,
    "يعطي": 4782,
    "نتقل": 4779,
    "لليو": 4777,
    "لسنغا": 4774,
    "يلها": 4773,
    "معية": 4772,
    "حسبما": 4771,
    "لتشغيلية": 4769,
    "لمثير": 4768,
    "لنر": 4766,
    "مطلو": 4759,
    "صم": 4757,
    "لتخلص": 4756,
    "تمكين": 4752,
    "قذ": 4752,
    "ليني": 4751,
    "ضل": 4749,
    "لشتا": 4748,
    "للمستثمر": 4748,
    "جملة": 4737,
    "لمنظو": 4727,
    "شعة": 4723,
    "للفنا": 4722,
    "طبيعي": 4721,
    "لمينا": 4719,
    "لملكي": 4717,
    "يثه": 4716,
    "لفير": 4712,
    "حمو": 4712,
    "تفجير": 4702,
    "لمحطا": 4697,
    "تغطية": 4695,
    "جميعها": 4694,
    "لكنهم": 4682,
    "لشعا": 4679,
    "تمد": 4677,
    "هيو": 4676,
    "مظا": 4672,
    "لتخصصا": 4671,
    "سطح": 4666,
    "للمهر": 4662,
    "يمتد": 4660,
    "لسحب": 4658,
    "يسد": 4656,
    "مبينا": 4653,
    "يخا": 4652,
    "لممتا": 4647,
    "لقصو": 4642,
    "لمتطلبا": 4640,
    "يشتر": 4636,
    "للخر": 4633,
    "طيلة": 4633,
    "لمحو": 4632,
    "يبو": 4631,
    "للمطا": 4629,
    "لحكيمة": 4629,
    "سلطة": 4628,
    "ىيليين": 4627,
    "لكلما": 4625,
    "بمكا": 4622,
    "لفخر": 4620,
    "تحصل": 4618,
    "تحذ": 4614,
    "لجنر": 4614,
    "فسين": 4608,
    "مشهد": 4605,
    "مقبو": 4604,
    "يمكنها": 4604,
    "ستكشا": 4603,
    "مبتكر": 4599,
    "تحضير": 4598,
    "لنسيا": 4596,
    "لخيل": 4595,
    "سلبية": 4590,
    "صب": 4589,
    "لشقيقة": 4588,
    "ختتمت": 4584,
    "لتقو": 4580,
    "معتمد": 4580,
    "لحمد": 4578,
    "فلسطينية": 4578,
    "يمنح": 4575,
    "قمية": 4574,
    "لفحو": 4572,
    "هبت": 4571,
    "لسنية": 4571,
    "بقي": 4571,
    "يلو": 4567,
    "قيل": 4562,
    "لمهنة": 4561,
    "لمخصص": 4560,
    "ميثا": 4558,
    "لهجر": 4557,
    "لميين": 4552,
    "صبر": 4549,
    "يحو": 4549,
    "يتمثل": 4546,
    "لجبا": 4540,
    "ستخر": 4539,
    "جمعت": 4528,
    "يفكر": 4525,
    "بطلا": 4525,
    "حمه": 4523,
    "ليم": 4523,
    "صها": 4521,
    "لحسن": 4517,
    "كتتا": 4516,
    "بجهو": 4515,
    "لمهتمين": 4511,
    "ينجح": 4509,
    "للسا": 4506,
    "للنفط": 4499,
    "مسقط": 4485,
    "بسعر": 4484,
    "نبيل": 4483,
    "لحقا": 4481,
    "مهنة": 4479,
    "فح": 4477,
    "تقبل": 4476,
    "لتغطية": 4474,
    "هلها": 4473,
    "يحضر": 4473,
    "يفية": 4470,
    "مستقر": 4468,
    "بتكر": 4468,
    "همو": 4466,
    "يتين": 4461,
    "فعو": 4461,
    "سهل": 4461,
    "تخو": 4460,
    "بكستا": 4457,
    "تيبا": 4455,
    "لتلو": 4453,
    "لتطر": 4447,
    "نحر": 4445,
    "لكني": 4445,
    "سلما": 4445,
    "فيز": 4439,
    "منظما": 4439,
    "تبحث": 4438,
    "تغر": 4437,
    "نفلو": 4435,
    "بمجمو": 4431,
    "لمختبر": 4429,
    "جستير": 4425,
    "تفق": 4422,
    "تشعر": 4421,
    "لضبط": 4420,
    "لتكلفة": 4420,
    "ليسر": 4418,
    "متعا": 4416,
    "لمجمع": 4415,
    "بحجم": 4413,
    "لعجز": 4411,
    "ظيفية": 4411,
    "جمين": 4405,
    "لتخر": 4404,
    "جنحة": 4402,
    "سقا": 4401,
    "صلو": 4388,
    "لمتبقية": 4385,
    "مسية": 4383,
    "محتو": 4381,
    "فطا": 4378,
    "للجما": 4377,
    "بجميع": 4373,
    "لعشا": 4372,
    "حلية": 4372,
    "لصبر": 4372,
    "خلها": 4371,
    "يفتر": 4371,
    "يعلم": 4367,
    "لنهو": 4364,
    "سلبا": 4362,
    "لفطر": 4362,
    "ينيو": 4360,
    "لطلبا": 4357,
    "ضعه": 4356,
    "لضعف": 4355,
    "سلطنة": 4341,
    "غنيا": 4338,
    "للطلبة": 4329,
    "لقي": 4328,
    "سطبلا": 4326,
    "تنسيق": 4325,
    "حققته": 4325,
    "طحنو": 4325,
    "لعيو": 4325,
    "لمفتر": 4324,
    "نطو": 4323,
    "نتي": 4314,
    "لصقو": 4312,
    "تلقا": 4309,
    "لمعنى": 4308,
    "جبة": 4304,
    "بغض": 4304,
    "يحل": 4298,
    "لتغذ": 4297,
    "كسب": 4295,
    "بينه": 4294,
    "غلقت": 4291,
    "جسر": 4286,
    "متمر": 4274,
    "لعثو": 4274,
    "ببعض": 4270,
    "نضبا": 4262,
    "نتطلع": 4260,
    "جسا": 4256,
    "تفعا": 4255,
    "يغ": 4253,
    "بمجر": 4252,
    "حبه": 4252,
    "لكيميا": 4251,
    "جعلت": 4251,
    "بث": 4249,
    "حجر": 4238,
    "تس": 4238,
    "صه": 4237,
    "عذ": 4235,
    "سهيل": 4232,
    "لعلي": 4225,
    "للطلا": 4224,
    "ليفو": 4223,
    "جيتسو": 4222,
    "بتحقيق": 4212,
    "يصعب": 4212,
    "ىبة": 4209,
    "مسلم": 4207,
    "هنية": 4204,
    "يجيا": 4199,
    "لفتت": 4198,
    "لقت": 4197,
    "قفه": 4190,
    "تجسد": 4189,
    "ممثلين": 4184,
    "لمختلف": 4183,
    "سببا": 4182,
    "بتعد": 4181,
    "لطيبة": 4170,
    "سفينة": 4167,
    "لتضا": 4162,
    "لشهو": 4161,
    "قشا": 4155,
    "تشد": 4153,
    "لمتبعة": 4150,
    "حتسا": 4150,
    "يقضي": 4149,
    "للشعب": 4148,
    "للتسو": 4147,
    "لعصا": 4147,
    "لمتطر": 4143,
    "عليك": 4140,
    "لسلبي": 4138,
    "لنطا": 4138,
    "لتلبية": 4138,
    "يتش": 4137,
    "بعت": 4137,
    "متى": 4136,
    "لمعلم": 4134,
    "حينها": 4133,
    "مخز": 4133,
    "بهة": 4127,
    "كتما": 4127,
    "متصل": 4124,
    "بفعل": 4124,
    "بقطا": 4123,
    "تشي": 4122,
    "جنر": 4121,
    "فيهم": 4116,
    "لهن": 4107,
    "نيس": 4106,
    "يستهد": 4106,
    "كنية": 4106,
    "لقتلى": 4100,
    "كمر": 4099,
    "لتحليل": 4098,
    "كسبو": 4092,
    "يفي": 4090,
    "للجها": 4089,
    "مصبح": 4082,
    "تنظمها": 4079,
    "لتقليل": 4078,
    "يمنع": 4073,
    "لمحليين": 4071,
    "لقة": 4069,
    "ظيفي": 4068,
    "لتخفيف": 4066,
    "ىقي": 4065,
    "تتحو": 4065,
    "مبيا": 4064,
    "لمتحف": 4063,
    "بعمل": 4062,
    "يعيشو": 4060,
    "لمجني": 4060,
    "بمبلغ": 4059,
    "ستفسا": 4058,
    "بشير": 4058,
    "تغطي": 4057,
    "ىيسيا": 4056,
    "حبها": 4056,
    "صحفية": 4055,
    "يلند": 4053,
    "هشة": 4050,
    "فعين": 4049,
    "يعيد": 4049,
    "ينظم": 4048,
    "لقصف": 4047,
    "لمتخصصين": 4047,
    "طف": 4047,
    "مصنع": 4036,
    "يستيا": 4034,
    "للعو": 4034,
    "يظل": 4033,
    "ضخم": 4029,
    "فنحن": 4026,
    "جمو": 4024,
    "لسكن": 4023,
    "ميجا": 4023,
    "يستفيد": 4023,
    "لحضر": 4018,
    "لمحمد": 4015,
    "تنظمه": 4014,
    "حملت": 4010,
    "تحققت": 4008,
    "مملكة": 4008,
    "لثقيلة": 4006,
    "لمبر": 4005,
    "بتسا": 4004,
    "حقيقي": 4004,
    "نيه": 4003,
    "صعبا": 3999,
    "ليمنى": 3993,
    "بهما": 3992,
    "يتخذ": 3991,
    "لتشكيل": 3989,
    "طبيب": 3988,
    "بحيا": 3987,
    "يستعد": 3987,
    "تسببت": 3986,
    "صغا": 3977,
    "نتشر": 3976,
    "تستضيف": 3975,
    "لع": 3973,
    "لمعما": 3973,
    "حتها": 3973,
    "لمليو": 3966,
    "لمسجلة": 3965,
    "بغية": 3949,
    "منيا": 3947,
    "لمعلمين": 3942,
    "يبذ": 3941,
    "يحيى": 3940,
    "لمنصب": 3940,
    "حققها": 3937,
    "لجيو": 3936,
    "لنبي": 3934,
    "بتلك": 3933,
    "لمبذ": 3931,
    "للسيد": 3929,
    "للبحث": 3929,
    "سيسا": 3925,
    "لسبل": 3923,
    "بتكلفة": 3921,
    "لحفر": 3916,
    "يمكننا": 3916,
    "نقلة": 3911,
    "لمبتكر": 3911,
    "كسو": 3910,
    "نفسنا": 3910,
    "لخطير": 3899,
    "لقصا": 3896,
    "لنقص": 3895,
    "كسل": 3891,
    "لمنتشر": 3885,
    "ثق": 3884,
    "لتطبيقية": 3884,
    "منصبه": 3884,
    "يستا": 3884,
    "جتها": 3883,
    "تنمو": 3881,
    "نستطيع": 3879,
    "تصب": 3879,
    "بطي": 3874,
    "للكا": 3870,
    "لفضية": 3870,
    "لمقو": 3868,
    "لىك": 3865,
    "للجيش": 3864,
    "تجسيد": 3863,
    "يتطلع": 3861,
    "يثير": 3859,
    "حيته": 3859,
    "خصصت": 3859,
    "بخلا": 3858,
    "لمجلة": 3858,
    "جيح": 3857,
    "سعيا": 3857,
    "تلين": 3855,
    "قتيلا": 3855,
    "خصص": 3855,
    "لخنا": 3843,
    "للبا": 3843,
    "خبين": 3841,
    "ثه": 3840,
    "تخز": 3840,
    "لجمع": 3839,
    "يعقو": 3835,
    "ضعة": 3835,
    "بيننا": 3834,
    "حلبة": 3831,
    "لقبو": 3831,
    "للفا": 3829,
    "سعي": 3827,
    "نعد": 3824,
    "يطلب": 3819,
    "لشكو": 3815,
    "لمنها": 3814,
    "مضمو": 3813,
    "جعين": 3807,
    "قيو": 3807,
    "صطد": 3806,
    "لحجر": 3804,
    "لتمهيد": 3799,
    "لبحا": 3797,
    "لستا": 3796,
    "شحة": 3794,
    "حصيلة": 3793,
    "تطبيقها": 3790,
    "حهم": 3789,
    "تجو": 3789,
    "طىة": 3786,
    "تعتر": 3782,
    "لبشير": 3780,
    "ستبعا": 3777,
    "لمنو": 3776,
    "فنتو": 3776,
    "حبيب": 3774,
    "حته": 3774,
    "ثنى": 3769,
    "لجلد": 3766,
    "سنتين": 3765,
    "بليو": 3762,
    "فيين": 3762,
    "بمها": 3754,
    "نقطا": 3754,
    "ضيح": 3754,
    "حمص": 3754,
    "غلى": 3750,
    "لصغر": 3748,
    "تظل": 3743,
    "نفسية": 3742,
    "محسن": 3742,
    "تستو": 3741,
    "جيمس": 3739,
    "شجر": 3738,
    "جني": 3737,
    "شم": 3735,
    "حققتها": 3731,
    "للمعر": 3728,
    "لمعتقلين": 3726,
    "لضخمة": 3724,
    "قضت": 3720,
    "عليا": 3720,
    "لنيجير": 3717,
    "ثبة": 3715,
    "بحكم": 3711,
    "مستقلة": 3710,
    "غل": 3707,
    "يكشف": 3705,
    "يي": 3703,
    "حشد": 3702,
    "لظهر": 3701,
    "بى": 3701,
    "لمحللين": 3701,
    "لشطر": 3700,
    "يفتح": 3696,
    "للعلو": 3693,
    "يعتز": 3693,
    "لمستقلة": 3690,
    "يقتصر": 3688,
    "ستيفا": 3688,
    "لعنو": 3683,
    "لمحتو": 3680,
    "لصفا": 3680,
    "تتمكن": 3679,
    "للفنو": 3675,
    "يغيب": 3675,
    "قصف": 3673,
    "قلق": 3672,
    "للحيا": 3671,
    "تلبي": 3670,
    "لمملو": 3669,
    "ممر": 3666,
    "تلة": 3665,
    "لمتغير": 3664,
    "لفشل": 3662,
    "لمسلحين": 3662,
    "كثا": 3661,
    "لمقبلين": 3658,
    "ثقته": 3657,
    "نضم": 3657,
    "تصنيع": 3657,
    "عملي": 3656,
    "بحية": 3654,
    "لسنا": 3653,
    "نيسيا": 3652,
    "قيقتين": 3644,
    "تى": 3642,
    "تعليق": 3640,
    "تفسير": 3638,
    "سست": 3637,
    "ىجها": 3637,
    "لتجمع": 3632,
    "تجة": 3630,
    "لسجا": 3630,
    "بتن": 3628,
    "لنظيفة": 3623,
    "ملتز": 3620,
    "يتكو": 3620,
    "ضيو": 3618,
    "تسع": 3618,
    "تتد": 3615,
    "نقسا": 3614,
    "سعى": 3612,
    "لصفقا": 3612,
    "سيتو": 3611,
    "تنقل": 3610,
    "ليك": 3608,
    "للمجتمع": 3607,
    "لجبهة": 3606,
    "بنفسه": 3603,
    "يشبه": 3602,
    "تصحيح": 3602,
    "قفة": 3601,
    "عينا": 3601,
    "لبعد": 3601,
    "شعبا": 3600,
    "مغر": 3599,
    "يغا": 3596,
    "تهر": 3594,
    "نيك": 3594,
    "تتجه": 3588,
    "بكي": 3585,
    "تكشف": 3585,
    "تكثيف": 3584,
    "سمين": 3583,
    "تلي": 3582,
    "تفتح": 3579,
    "مظلة": 3578,
    "ينعكس": 3577,
    "ستمع": 3577,
    "لتفجير": 3577,
    "عنف": 3575,
    "لمصنف": 3574,
    "بنه": 3573,
    "نطبا": 3570,
    "بمتا": 3569,
    "مخصصة": 3569,
    "منى": 3567,
    "سكر": 3565,
    "قمنا": 3563,
    "تلتها": 3563,
    "ىص": 3559,
    "لعظيم": 3557,
    "يفضل": 3556,
    "يميز": 3555,
    "نهر": 3554,
    "سلبيا": 3553,
    "يتحقق": 3553,
    "صلية": 3552,
    "طلقها": 3552,
    "شية": 3551,
    "مستثمر": 3549,
    "قتحا": 3548,
    "لنخبة": 3545,
    "قليل": 3540,
    "حقل": 3535,
    "تعطي": 3535,
    "لشكا": 3533,
    "لممثلة": 3530,
    "ممتا": 3529,
    "بجنو": 3528,
    "بكو": 3525,
    "لنير": 3524,
    "مختبر": 3524,
    "كتبت": 3522,
    "يخسر": 3522,
    "سلة": 3522,
    "ستطيع": 3521,
    "ستعمل": 3520,
    "طيد": 3520,
    "لحلا": 3519,
    "لحلف": 3519,
    "تتبع": 3518,
    "مجتمعا": 3517,
    "عجلة": 3516,
    "عملهم": 3513,
    "لجلو": 3508,
    "نتظر": 3506,
    "جتيا": 3502,
    "حفلا": 3501,
    "حفر": 3497,
    "حنة": 3493,
    "ىبا": 3493,
    "يقتر": 3491,
    "تستحق": 3487,
    "لبنز": 3487,
    "شتو": 3486,
    "خة": 3485,
    "لتصنيع": 3484,
    "لمتضر": 3483,
    "بنمو": 3482,
    "لصحيحة": 3482,
    "لجلسا": 3481,
    "تنها": 3481,
    "لممر": 3480,
    "لغضب": 3475,
    "لتسهيل": 3473,
    "ظم": 3470,
    "لشتو": 3469,
    "لبث": 3469,
    "كيه": 3469,
    "لمين": 3469,
    "لمعمو": 3468,
    "تفتيش": 3462,
    "ينظمها": 3462,
    "صفقا": 3460,
    "تعلن": 3458,
    "محللو": 3457,
    "نقطتين": 3454,
    "بعنا": 3452,
    "ليستقر": 3452,
    "تطلب": 3451,
    "يجسد": 3445,
    "يكتب": 3444,
    "لقصص": 3442,
    "نصو": 3439,
    "لبير": 3437,
    "تند": 3436,
    "تستعد": 3433,
    "سهمت": 3431,
    "ىلية": 3429,
    "مكثفة": 3426,
    "للطيف": 3425,
    "خله": 3424,
    "لكليا": 3423,
    "قنبلة": 3423,
    "يتما": 3418,
    "لنهج": 3418,
    "عبينا": 3418,
    "خنة": 3415,
    "للغو": 3410,
    "لطبا": 3408,
    "بعملية": 3408,
    "يصب": 3407,
    "قبر": 3406,
    "لخليجيين": 3405,
    "كتهم": 3402,
    "لجليد": 3399,
    "كتين": 3396,
    "مضما": 3391,
    "فعي": 3386,
    "متخصص": 3386,
    "يخها": 3384,
    "تنظر": 3380,
    "لخييلي": 3379,
    "يعلن": 3377,
    "سطا": 3377,
    "فيسبو": 3377,
    "نجلو": 3375,
    "تحتل": 3375,
    "تنتج": 3372,
    "تمثيل": 3372,
    "كيم": 3370,
    "تهتم": 3365,
    "منصا": 3365,
    "للقد": 3364,
    "بنز": 3363,
    "لنفو": 3362,
    "ستبعد": 3362,
    "سخ": 3361,
    "منحت": 3360,
    "لجند": 3357,
    "مستشفيا": 3356,
    "لعبت": 3352,
    "سجن": 3349,
    "لمنصر": 3344,
    "نكر": 3343,
    "لحج": 3343,
    "للمجمو": 3341,
    "تهيىة": 3339,
    "بتك": 3338,
    "يضر": 3338,
    "سيكية": 3336,
    "بنة": 3334,
    "حلب": 3334,
    "لمحتا": 3332,
    "لتغلب": 3332,
    "طبة": 3330,
    "شتا": 3330,
    "تكب": 3328,
    "تخضع": 3325,
    "يعي": 3324,
    "فتحت": 3323,
    "بمعنى": 3322,
    "كسي": 3321,
    "ممكنة": 3319,
    "بعمليا": 3318,
    "فيسو": 3317,
    "بمز": 3317,
    "فتو": 3313,
    "نقذ": 3313,
    "بطلب": 3312,
    "طما": 3311,
    "لحنا": 3311,
    "نسيين": 3308,
    "لمحبة": 3306,
    "طعمة": 3300,
    "سطنبو": 3298,
    "لسبع": 3296,
    "للنظا": 3291,
    "بمن": 3291,
    "لمخضر": 3290,
    "تقتصر": 3289,
    "جهم": 3287,
    "جستية": 3286,
    "كهم": 3286,
    "خيه": 3285,
    "لنما": 3285,
    "مىو": 3285,
    "لبكا": 3285,
    "يتحو": 3283,
    "للجز": 3282,
    "نبر": 3282,
    "يفهم": 3282,
    "لحسين": 3280,
    "نحتا": 3278,
    "لممتد": 3276,
    "للشطر": 3275,
    "لكه": 3274,
    "محيط": 3274,
    "يحق": 3273,
    "نظمتها": 3271,
    "بخد": 3268,
    "بتطبيق": 3268,
    "مفو": 3267,
    "ينتمي": 3267,
    "قعو": 3265,
    "لمضي": 3264,
    "لبند": 3263,
    "يتسا": 3263,
    "بعضا": 3262,
    "جيش": 3261,
    "تتسم": 3258,
    "طمىنا": 3257,
    "فخا": 3256,
    "يقيم": 3255,
    "حلف": 3251,
    "بسلا": 3250,
    "تفي": 3250,
    "لتسر": 3249,
    "ليتها": 3245,
    "لمند": 3244,
    "منتج": 3242,
    "لحمل": 3239,
    "غلو": 3237,
    "يخضع": 3234,
    "ثل": 3233,
    "سحر": 3225,
    "صفحا": 3223,
    "لمعنيين": 3223,
    "جعلها": 3222,
    "لتنس": 3222,
    "للمنطقة": 3219,
    "يعتر": 3218,
    "لحظا": 3217,
    "لجنيبي": 3216,
    "ضهم": 3213,
    "يصر": 3212,
    "فيكتو": 3210,
    "لنصو": 3209,
    "لسلمية": 3209,
    "لعبر": 3206,
    "يسي": 3205,
    "للعملا": 3203,
    "لسنين": 3201,
    "لمنح": 3201,
    "لتحفيز": 3199,
    "منطلق": 3196,
    "شيكا": 3196,
    "كسسو": 3196,
    "ممثلو": 3195,
    "عنيفة": 3195,
    "تتز": 3195,
    "ضخ": 3195,
    "هميتها": 3194,
    "بفند": 3192,
    "نفط": 3188,
    "ستيكية": 3187,
    "خستا": 3186,
    "لطيب": 3185,
    "هيلا": 3185,
    "سفل": 3184,
    "لتقني": 3184,
    "لمسح": 3181,
    "يحب": 3181,
    "فضلية": 3180,
    "لشبكا": 3179,
    "لبسيطة": 3177,
    "ثينا": 3177,
    "شمس": 3167,
    "لنقبي": 3165,
    "جبهة": 3165,
    "بصعو": 3164,
    "كمبيو": 3164,
    "يصو": 3163,
    "لمسمو": 3162,
    "لقلعة": 3162,
    "ليمين": 3161,
    "لتى": 3161,
    "حلقا": 3159,
    "لخلق": 3159,
    "لقما": 3158,
    "قصو": 3157,
    "فيعة": 3156,
    "كتي": 3155,
    "بحة": 3154,
    "خليجية": 3154,
    "نغ": 3153,
    "لفقير": 3152,
    "لمنيو": 3149,
    "لصيفية": 3145,
    "فهل": 3141,
    "لمخز": 3141,
    "تعثر": 3140,
    "يسبق": 3134,
    "لمختصين": 3134,
    "هيد": 3134,
    "بقيت": 3132,
    "للطر": 3131,
    "محفو": 3131,
    "ضنا": 3131,
    "تنص": 3130,
    "تيه": 3129,
    "مصو": 3128,
    "غبته": 3125,
    "هيىا": 3124,
    "تختتم": 3123,
    "سهمها": 3122,
    "لمتعة": 3121,
    "صحيحة": 3119,
    "قصص": 3118,
    "نبي": 3118,
    "للصو": 3116,
    "مهمته": 3116,
    "لمعتا": 3114,
    "حظي": 3113,
    "مىة": 3113,
    "تعليما": 3113,
    "لفي": 3107,
    "كيما": 3105,
    "تخطيط": 3103,
    "ىيين": 3103,
    "بعها": 3102,
    "سقطت": 3099,
    "قفها": 3099,
    "للحظا": 3098,
    "متبا": 3097,
    "مسلحو": 3096,
    "مجه": 3091,
    "بخطو": 3088,
    "لتليفز": 3087,
    "بحما": 3086,
    "مسلحة": 3086,
    "حظيت": 3086,
    "لمىا": 3083,
    "لمجتمعي": 3082,
    "تلتيكو": 3080,
    "فحو": 3077,
    "خفيفة": 3076,
    "يفقد": 3075,
    "لعملي": 3075,
    "تفكير": 3073,
    "سكتلند": 3073,
    "مكي": 3067,
    "لمجهو": 3063,
    "لمظا": 3061,
    "هبط": 3061,
    "يثبت": 3059,
    "لخطيب": 3057,
    "شق": 3056,
    "جمير": 3055,
    "سيقي": 3054,
    "لخفض": 3053,
    "سيقد": 3052,
    "تشييد": 3051,
    "للتين": 3050,
    "للبلا": 3049,
    "منين": 3049,
    "فلسطيني": 3048,
    "طفلا": 3046,
    "مكتبة": 3046,
    "لعذ": 3045,
    "طلقتها": 3044,
    "لجلا": 3044,
    "بعث": 3044,
    "جنسيا": 3040,
    "تسليط": 3040,
    "نفت": 3037,
    "حقه": 3036,
    "لسحر": 3035,
    "شقة": 3035,
    "طبي": 3033,
    "لحية": 3033,
    "بنيا": 3033,
    "يفعل": 3031,
    "تيح": 3031,
    "للتجا": 3031,
    "لتخز": 3031,
    "تستغر": 3030,
    "لتخلي": 3028,
    "معظمها": 3027,
    "عشو": 3024,
    "ينص": 3019,
    "لصكو": 3019,
    "قتلى": 3019,
    "تحقيقه": 3019,
    "ملية": 3019,
    "ستلا": 3018,
    "نمط": 3015,
    "بينت": 3014,
    "قصد": 3013,
    "بتز": 3009,
    "لطفلة": 3009,
    "لعقبا": 3009,
    "لمجو": 3008,
    "تني": 3005,
    "لحكمة": 3004,
    "ظة": 3004,
    "سهلا": 3004,
    "محققا": 3002,
    "للعمليا": 3002,
    "تسيطر": 3001,
    "لصحفية": 2999,
    "ككل": 2999,
    "ىض": 2995,
    "لتجميل": 2994,
    "مجمل": 2993,
    "مخيم": 2989,
    "نصب": 2989,
    "غما": 2986,
    "سمعة": 2983,
    "مجهز": 2983,
    "مستفيد": 2981,
    "ليتم": 2981,
    "نجيب": 2977,
    "سيلفا": 2977,
    "تستضيفها": 2975,
    "جس": 2975,
    "نتج": 2975,
    "لطنيجي": 2975,
    "بلقا": 2973,
    "تتطلع": 2973,
    "قمي": 2970,
    "بنتا": 2968,
    "نشو": 2962,
    "خن": 2960,
    "يقبل": 2960,
    "كتلة": 2960,
    "حيب": 2959,
    "كمو": 2959,
    "محظو": 2959,
    "حكما": 2956,
    "طيين": 2955,
    "بكفا": 2954,
    "سبحا": 2954,
    "لسجو": 2952,
    "يىة": 2952,
    "لمفهو": 2950,
    "عطى": 2947,
    "كسيد": 2946,
    "تعنى": 2945,
    "يمير": 2945,
    "نعكس": 2945,
    "يشو": 2942,
    "متعة": 2942,
    "هى": 2942,
    "ليبر": 2942,
    "يليه": 2942,
    "لتسد": 2941,
    "جعله": 2939,
    "سنتر": 2938,
    "قمت": 2934,
    "للقضا": 2933,
    "كجم": 2932,
    "حيز": 2929,
    "خصيصا": 2929,
    "لمحلل": 2926,
    "لمصنع": 2925,
    "بتشكيل": 2925,
    "تقي": 2920,
    "هجمة": 2920,
    "تعيد": 2916,
    "مسبقا": 2915,
    "غنى": 2912,
    "لبذ": 2911,
    "للمز": 2909,
    "للجد": 2909,
    "لسلم": 2907,
    "لمتقا": 2905,
    "لصمت": 2905,
    "بعلا": 2904,
    "ينتج": 2903,
    "لفهم": 2902,
    "علق": 2902,
    "لمجد": 2902,
    "لقمز": 2899,
    "مطو": 2898,
    "فصو": 2897,
    "للمصا": 2897,
    "تسجل": 2896,
    "بنسب": 2896,
    "نعو": 2896,
    "بعشر": 2894,
    "للشيخ": 2892,
    "نسبتها": 2889,
    "ستسا": 2888,
    "لفتح": 2888,
    "تميم": 2887,
    "يحملو": 2887,
    "سيمو": 2882,
    "لتمييز": 2879,
    "ممثلا": 2879,
    "يختا": 2878,
    "لمشتبه": 2876,
    "لكسا": 2874,
    "تشتمل": 2874,
    "لممنو": 2874,
    "تتكو": 2873,
    "ينفذ": 2871,
    "تنتشر": 2871,
    "يتسبب": 2869,
    "تخصص": 2863,
    "يسيطر": 2863,
    "نشغا": 2861,
    "ستغنا": 2861,
    "طفو": 2861,
    "صقل": 2861,
    "بعجما": 2859,
    "نبذ": 2859,
    "جبها": 2857,
    "لسليم": 2857,
    "لفضل": 2856,
    "منفذ": 2855,
    "تخطط": 2855,
    "نهج": 2854,
    "بعقد": 2853,
    "حتلت": 2852,
    "ليخو": 2850,
    "قليميا": 2848,
    "لسمك": 2846,
    "متشد": 2844,
    "بيه": 2842,
    "تهمة": 2840,
    "هنر": 2838,
    "متصد": 2837,
    "هلين": 2836,
    "ملفا": 2835,
    "جنسية": 2833,
    "لمنفذ": 2832,
    "ىجه": 2830,
    "قلعة": 2830,
    "منتجع": 2828,
    "يسعد": 2827,
    "عظم": 2826,
    "ببنا": 2826,
    "سمع": 2825,
    "للتميز": 2823,
    "عطلة": 2822,
    "خما": 2822,
    "ميتسو": 2820,
    "مجة": 2819,
    "للملا": 2817,
    "حلها": 2817,
    "لسهل": 2816,
    "لتحقق": 2816,
    "تثير": 2815,
    "لكيما": 2814,
    "يسهل": 2814,
    "ليلى": 2814,
    "ضعيفة": 2810,
    "ينها": 2809,
    "نظمته": 2807,
    "تنشيط": 2807,
    "تجمد": 2806,
    "للكو": 2801,
    "للبيع": 2801,
    "جىة": 2801,
    "يكمن": 2800,
    "لمكتبة": 2800,
    "بخسا": 2800,
    "لنصا": 2799,
    "قتي": 2797,
    "ثيا": 2796,
    "تحكيم": 2795,
    "لغنية": 2795,
    "سيه": 2794,
    "لسليمة": 2793,
    "لقهو": 2791,
    "ىلته": 2790,
    "لمتكر": 2788,
    "هجر": 2786,
    "لعت": 2786,
    "فك": 2785,
    "حققنا": 2784,
    "لخفيفة": 2783,
    "معقو": 2783,
    "لتهنىة": 2781,
    "جنبا": 2779,
    "عليهما": 2778,
    "بيز": 2778,
    "شل": 2778,
    "للنمو": 2777,
    "سليمة": 2777,
    "نخيل": 2777,
    "فعلى": 2776,
    "نكما": 2775,
    "ليتا": 2774,
    "محلي": 2771,
    "بشو": 2769,
    "لتلقي": 2766,
    "ظفيها": 2764,
    "مختلفا": 2764,
    "لهيكل": 2762,
    "ليقو": 2762,
    "تبعا": 2761,
    "لحصة": 2760,
    "مخد": 2759,
    "للبنك": 2759,
    "يجعلها": 2757,
    "منخفضة": 2753,
    "يمكنهم": 2749,
    "متقا": 2747,
    "لنسو": 2747,
    "بسيط": 2746,
    "يست": 2745,
    "لص": 2744,
    "صطنا": 2742,
    "جيز": 2740,
    "لحظر": 2740,
    "هيكلة": 2739,
    "لشقق": 2738,
    "يشغل": 2737,
    "تبعد": 2735,
    "يستر": 2732,
    "نعتقد": 2730,
    "لكسند": 2730,
    "معمر": 2729,
    "تثبيت": 2729,
    "فيليب": 2727,
    "تحقيقها": 2726,
    "يلجا": 2726,
    "تشتر": 2725,
    "لمسلم": 2724,
    "علمي": 2721,
    "قط": 2721,
    "لضيف": 2720,
    "تنز": 2719,
    "ميشيل": 2718,
    "لمجيد": 2717,
    "لتثقيف": 2717,
    "سيبد": 2716,
    "لحسم": 2715,
    "لقفز": 2715,
    "لمتخصص": 2712,
    "قضى": 2712,
    "ميشا": 2712,
    "لحكيم": 2711,
    "لمطبو": 2711,
    "نبو": 2710,
    "مضيفة": 2710,
    "للعما": 2709,
    "شيخ": 2709,
    "بمقا": 2708,
    "ستتو": 2706,
    "لطيا": 2704,
    "بتسد": 2704,
    "تفية": 2703,
    "نقلها": 2703,
    "سيشا": 2702,
    "صهو": 2701,
    "فيقو": 2700,
    "بتهم": 2698,
    "لجبلية": 2698,
    "بمجلس": 2696,
    "نعلم": 2696,
    "نيها": 2694,
    "لنفع": 2691,
    "جعفر": 2688,
    "كتشف": 2688,
    "لبحثية": 2687,
    "لتشكل": 2686,
    "ليتين": 2686,
    "معو": 2685,
    "نفجر": 2684,
    "صفت": 2684,
    "نحة": 2681,
    "لتمسك": 2680,
    "تبو": 2679,
    "سيشهد": 2678,
    "بصمة": 2676,
    "لعظمى": 2676,
    "صحي": 2676,
    "ضيفا": 2673,
    "تطلق": 2673,
    "مفتا": 2673,
    "لظهير": 2673,
    "مكتبه": 2673,
    "ملها": 2671,
    "تعليقا": 2668,
    "سحا": 2667,
    "قتلت": 2666,
    "لنحا": 2666,
    "نكفو": 2666,
    "منير": 2664,
    "لمتعثر": 2664,
    "جثة": 2664,
    "لتشو": 2664,
    "ستيلا": 2663,
    "يجة": 2663,
    "كفر": 2660,
    "سعت": 2659,
    "حتضا": 2658,
    "تثبت": 2658,
    "لعنكبو": 2657,
    "يتذ": 2655,
    "فكل": 2655,
    "ضيق": 2654,
    "يتقا": 2652,
    "بحقو": 2651,
    "لنبو": 2646,
    "لكفيلة": 2645,
    "تشبه": 2645,
    "ينت": 2644,
    "لحفظ": 2642,
    "للمقا": 2642,
    "غبو": 2641,
    "لعقلية": 2640,
    "لمخيم": 2640,
    "ظن": 2637,
    "فقها": 2634,
    "غضب": 2634,
    "بعقو": 2632,
    "تيم": 2631,
    "لتنقل": 2628,
    "لفجر": 2628,
    "للميا": 2628,
    "صى": 2626,
    "سسية": 2626,
    "يله": 2625,
    "تتفا": 2621,
    "لفخا": 2618,
    "قشت": 2618,
    "لسمنة": 2615,
    "ثيين": 2615,
    "لتمكين": 2614,
    "يسبب": 2613,
    "ييجو": 2613,
    "طلعت": 2612,
    "لتعليق": 2611,
    "لعبيد": 2611,
    "سمح": 2609,
    "تشجع": 2609,
    "يكية": 2607,
    "لصنع": 2607,
    "فضو": 2606,
    "يهتم": 2606,
    "لشقيقين": 2603,
    "بسبا": 2603,
    "نشعر": 2602,
    "بينا": 2602,
    "لكلي": 2600,
    "تقبة": 2600,
    "تحتية": 2599,
    "لمصنعة": 2597,
    "لمستا": 2597,
    "منفر": 2594,
    "تقضي": 2593,
    "لتنظيمي": 2592,
    "معظمهم": 2591,
    "يليا": 2590,
    "عميد": 2589,
    "صير": 2589,
    "يقنا": 2589,
    "لمصنفة": 2586,
    "كينا": 2584,
    "قيف": 2583,
    "تقسيم": 2583,
    "للمخر": 2583,
    "يملكو": 2582,
    "تهمت": 2581,
    "قلم": 2581,
    "للطفل": 2580,
    "معقد": 2580,
    "لثد": 2579,
    "فتتحت": 2577,
    "للنسا": 2577,
    "ستغل": 2577,
    "نتقلت": 2575,
    "حقيقيا": 2572,
    "خمسين": 2571,
    "قير": 2571,
    "يجعله": 2569,
    "تتغير": 2569,
    "لتشكيلي": 2569,
    "تطبق": 2568,
    "للسفر": 2568,
    "لخلفية": 2567,
    "لطما": 2566,
    "فشلت": 2566,
    "بتعز": 2563,
    "يتمنى": 2563,
    "لتشكيلية": 2563,
    "يشتمل": 2562,
    "فعليا": 2562,
    "لقلو": 2557,
    "تمثلت": 2556,
    "فضه": 2555,
    "تلتز": 2554,
    "يقلل": 2552,
    "مضطر": 2550,
    "بقصر": 2550,
    "لبين": 2549,
    "ينه": 2549,
    "لنجمة": 2548,
    "بطبيعة": 2548,
    "ننتظر": 2548,
    "مبي": 2546,
    "فيتنا": 2546,
    "تتعد": 2546,
    "خيمة": 2546,
    "نفعا": 2546,
    "علمت": 2544,
    "سيىة": 2544,
    "فعله": 2543,
    "بمفر": 2543,
    "مختا": 2542,
    "لملفا": 2540,
    "بنقل": 2540,
    "تفهم": 2540,
    "شيحا": 2539,
    "يقصد": 2539,
    "هيكل": 2537,
    "للبلد": 2535,
    "بطلة": 2534,
    "لجير": 2531,
    "لمير": 2531,
    "كجز": 2530,
    "لمهن": 2528,
    "لعفو": 2528,
    "سفن": 2525,
    "ستين": 2524,
    "فخو": 2522,
    "للصنا": 2522,
    "كتفا": 2521,
    "مسجلة": 2520,
    "فنز": 2520,
    "ستتم": 2520,
    "لحبو": 2520,
    "للفىة": 2519,
    "لمنشطا": 2519,
    "يسية": 2518,
    "تسهيلا": 2518,
    "يختتم": 2517,
    "لعشو": 2517,
    "لتعليما": 2516,
    "معتد": 2516,
    "محبي": 2516,
    "يتحر": 2515,
    "ضيها": 2514,
    "لفجو": 2513,
    "شقيقه": 2512,
    "فيك": 2510,
    "يستطيعو": 2508,
    "نهت": 2506,
    "لحصر": 2502,
    "سكن": 2501,
    "للتصو": 2501,
    "كمد": 2499,
    "قطعت": 2499,
    "هش": 2498,
    "تخطي": 2497,
    "معيا": 2496,
    "شنت": 2495,
    "ستفز": 2493,
    "طىية": 2491,
    "حلفا": 2490,
    "لعمق": 2489,
    "يستقبل": 2488,
    "لمنصة": 2488,
    "لنفطي": 2485,
    "لشجر": 2484,
    "لتشمل": 2479,
    "فتقد": 2479,
    "منسق": 2477,
    "لمنتهية": 2473,
    "شغل": 2470,
    "عني": 2469,
    "يحتر": 2469,
    "للتمو": 2465,
    "يكة": 2465,
    "بمطا": 2464,
    "سهما": 2463,
    "بيلا": 2463,
    "فيينا": 2462,
    "لمثقفين": 2461,
    "بملا": 2460,
    "تتسبب": 2460,
    "ملكية": 2459,
    "بقضا": 2457,
    "لهي": 2456,
    "ستقبلت": 2456,
    "لمضما": 2454,
    "لبسا": 2450,
    "مك": 2447,
    "لتحسن": 2447,
    "نهضة": 2446,
    "يتحمل": 2445,
    "لتسليم": 2443,
    "ليسو": 2441,
    "هقة": 2441,
    "جلب": 2439,
    "هت": 2439,
    "تسمى": 2439,
    "نظيف": 2436,
    "لخلف": 2435,
    "سمر": 2434,
    "سيسها": 2434,
    "كلنا": 2434,
    "حبو": 2433,
    "بنتها": 2430,
    "شط": 2430,
    "بحير": 2429,
    "جتا": 2428,
    "مسح": 2428,
    "مظهر": 2427,
    "كتفى": 2426,
    "كينيا": 2425,
    "مب": 2425,
    "تمنع": 2425,
    "فلما": 2424,
    "نشطتها": 2424,
    "تحيا": 2421,
    "ليتو": 2415,
    "ينتقل": 2414,
    "يتفق": 2413,
    "للند": 2412,
    "لفلل": 2411,
    "فلن": 2411,
    "لخبز": 2411,
    "لجبل": 2411,
    "يطمح": 2406,
    "خضع": 2405,
    "قند": 2405,
    "سلت": 2404,
    "حلتين": 2401,
    "ينطبق": 2400,
    "كتشفت": 2399,
    "ضحية": 2399,
    "تيني": 2396,
    "ظفو": 2395,
    "لمتفجر": 2395,
    "لفلو": 2395,
    "تعميق": 2394,
    "للتفا": 2394,
    "لمخطط": 2394,
    "هضة": 2394,
    "ستجو": 2393,
    "لمفكر": 2393,
    "تليها": 2392,
    "لمنتخبين": 2392,
    "معز": 2387,
    "لفصا": 2387,
    "لسقو": 2386,
    "ينما": 2385,
    "يستد": 2384,
    "يهما": 2382,
    "سنتا": 2381,
    "ستي": 2380,
    "يستغر": 2375,
    "فتيا": 2375,
    "جىت": 2375,
    "لقليل": 2373,
    "ستطر": 2372,
    "متجا": 2372,
    "منهجية": 2371,
    "لظو": 2369,
    "للجمعية": 2369,
    "نقله": 2368,
    "لسهر": 2368,
    "تقيم": 2367,
    "للسهم": 2367,
    "تنظيمها": 2365,
    "يتس": 2365,
    "تطبيقه": 2364,
    "سيعمل": 2363,
    "بتنا": 2361,
    "محلا": 2361,
    "ىفية": 2360,
    "لخليل": 2358,
    "سخة": 2357,
    "عتصا": 2356,
    "للمسر": 2356,
    "للبو": 2355,
    "يضطر": 2353,
    "حبت": 2352,
    "كعا": 2352,
    "ظفة": 2351,
    "صحر": 2350,
    "صلنا": 2348,
    "بيته": 2348,
    "نثى": 2347,
    "عفر": 2346,
    "ضفا": 2346,
    "حجمها": 2346,
    "كتنا": 2346,
    "بتسجيل": 2345,
    "تخص": 2345,
    "قلبي": 2345,
    "فبعد": 2344,
    "تقتر": 2344,
    "بمشر": 2342,
    "يتغير": 2342,
    "لكلى": 2342,
    "لنفسه": 2341,
    "تحكم": 2341,
    "تتحر": 2340,
    "كثب": 2339,
    "لحبا": 2339,
    "ىيسيين": 2337,
    "لغبا": 2337,
    "يبه": 2336,
    "نعيش": 2336,
    "لثمن": 2336,
    "لنفقا": 2335,
    "لتبد": 2335,
    "طل": 2334,
    "نيكي": 2333,
    "ليفا": 2333,
    "يليق": 2332,
    "لجسمي": 2332,
    "بغير": 2331,
    "تغذ": 2330,
    "لمصير": 2328,
    "لمحتمل": 2326,
    "مضت": 2326,
    "نسكو": 2324,
    "لحه": 2323,
    "فيير": 2322,
    "نينا": 2321,
    "كشر": 2320,
    "لحقت": 2319,
    "بيعها": 2319,
    "بهو": 2317,
    "بنغا": 2317,
    "بتحد": 2317,
    "تعقيد": 2316,
    "حظة": 2316,
    "ستهل": 2314,
    "لمطبخ": 2312,
    "لمليا": 2312,
    "طبعا": 2311,
    "جعية": 2311,
    "نفقا": 2309,
    "تجميد": 2309,
    "لكمية": 2308,
    "بمستشفى": 2306,
    "ىقا": 2305,
    "لسيىة": 2304,
    "سمى": 2304,
    "للمحتر": 2303,
    "بضعة": 2302,
    "ختنا": 2300,
    "لسلمي": 2295,
    "شيخة": 2293,
    "لظلا": 2293,
    "تخصصا": 2292,
    "لبيض": 2292,
    "للخطر": 2291,
    "لمتمثل": 2290,
    "لعظا": 2290,
    "نظمها": 2290,
    "طيو": 2290,
    "مستحقا": 2289,
    "متحر": 2289,
    "لبلجيكي": 2288,
    "تيسير": 2287,
    "طبق": 2285,
    "لميكا": 2285,
    "لقمح": 2285,
    "تتما": 2283,
    "لشجا": 2283,
    "نبية": 2283,
    "فيلما": 2282,
    "مطعم": 2279,
    "لفهد": 2275,
    "لتجنب": 2275,
    "كستر": 2275,
    "لعميق": 2272,
    "متجر": 2265,
    "سيعو": 2264,
    "ليبلغ": 2263,
    "لكتل": 2263,
    "لمفقو": 2262,
    "يفيا": 2262,
    "لصعد": 2259,
    "لمحتجين": 2258,
    "ضعية": 2258,
    "يشتبه": 2257,
    "غتصا": 2256,
    "شحن": 2252,
    "تنظيف": 2250,
    "نينو": 2249,
    "لقبه": 2249,
    "ينس": 2247,
    "لفلبين": 2246,
    "لحم": 2246,
    "للغر": 2246,
    "شيما": 2244,
    "متظا": 2244,
    "لمسجل": 2243,
    "بيضا": 2243,
    "تفعل": 2241,
    "ستن": 2240,
    "ببلد": 2240,
    "تجميع": 2240,
    "لمفضلة": 2239,
    "شمو": 2238,
    "لفيز": 2238,
    "لضحية": 2237,
    "لمنسق": 2237,
    "جيلا": 2235,
    "لمقصو": 2232,
    "لممثلين": 2232,
    "لفلسفة": 2232,
    "شتهر": 2228,
    "خت": 2228,
    "قمر": 2227,
    "بلجيكا": 2225,
    "خليج": 2225,
    "سيليا": 2225,
    "لطهي": 2225,
    "يصة": 2223,
    "للخا": 2222,
    "يلتز": 2220,
    "لتجو": 2219,
    "شعبي": 2219,
    "تلعبه": 2219,
    "فليس": 2218,
    "جحا": 2218,
    "بتسليم": 2215,
    "لغلا": 2215,
    "متين": 2214,
    "يلقي": 2213,
    "متصا": 2213,
    "نتحد": 2212,
    "مهلة": 2212,
    "منحة": 2211,
    "تتحمل": 2208,
    "نهن": 2208,
    "جنب": 2207,
    "فلسا": 2206,
    "خططها": 2205,
    "عقبة": 2205,
    "ضمنها": 2205,
    "عمت": 2205,
    "يلبي": 2204,
    "خم": 2204,
    "لمتفر": 2203,
    "ستيك": 2203,
    "عبه": 2202,
    "ميه": 2200,
    "يشجع": 2200,
    "تيجيتها": 2199,
    "ميكا": 2198,
    "بخبر": 2198,
    "يجيد": 2197,
    "لتصحيح": 2196,
    "للتصد": 2194,
    "لبيطر": 2192,
    "مجيا": 2192,
    "لسبعة": 2190,
    "طفر": 2188,
    "سيل": 2188,
    "تشيلي": 2187,
    "مخصصا": 2185,
    "حيين": 2185,
    "يستطع": 2184,
    "عيين": 2181,
    "تيجيين": 2181,
    "لثقيل": 2181,
    "لعصو": 2178,
    "لملحق": 2177,
    "لمحتملة": 2176,
    "ستحق": 2175,
    "سيجر": 2175,
    "ستجر": 2174,
    "نفسيا": 2173,
    "مستقبلية": 2173,
    "لمعطيا": 2173,
    "للنظر": 2172,
    "ببا": 2172,
    "لعميل": 2171,
    "بيك": 2170,
    "بكلية": 2170,
    "بيجا": 2168,
    "بنشر": 2167,
    "هقين": 2167,
    "منهن": 2166,
    "لحبس": 2162,
    "للتسجيل": 2161,
    "للبنو": 2161,
    "لتشييد": 2161,
    "ستيفن": 2160,
    "جلد": 2160,
    "نكي": 2159,
    "لتبغ": 2158,
    "نجحنا": 2157,
    "لفعلية": 2157,
    "لمخطو": 2157,
    "كمله": 2156,
    "لطفر": 2156,
    "مستلز": 2155,
    "لممتلكا": 2155,
    "سيعقد": 2151,
    "نلعب": 2151,
    "قض": 2151,
    "لتسعة": 2149,
    "تحل": 2148,
    "لمستند": 2148,
    "شبيلية": 2147,
    "كلفة": 2147,
    "عتيا": 2146,
    "جيجا": 2146,
    "تتسع": 2145,
    "ينتمو": 2145,
    "لبقية": 2144,
    "هميته": 2143,
    "ليكس": 2141,
    "تعذ": 2139,
    "للشعر": 2139,
    "ستز": 2138,
    "هق": 2138,
    "فعند": 2137,
    "شنغها": 2137,
    "بتحو": 2137,
    "تمضي": 2137,
    "للسنة": 2136,
    "مملو": 2136,
    "فيت": 2135,
    "ضحى": 2134,
    "نحقق": 2134,
    "سيم": 2133,
    "فلسطينيين": 2132,
    "لتحذ": 2132,
    "بيىية": 2131,
    "يغير": 2130,
    "لمعبر": 2129,
    "لمشي": 2129,
    "لجنسين": 2126,
    "تهنىة": 2126,
    "لسلسلة": 2125,
    "يغطي": 2123,
    "لممكنة": 2123,
    "تحصيل": 2122,
    "لعبنا": 2121,
    "لصيفي": 2121,
    "سجلا": 2121,
    "فضية": 2121,
    "لمشهو": 2120,
    "يطو": 2118,
    "لسلبيا": 2117,
    "حيتها": 2115,
    "لتهر": 2113,
    "عملنا": 2113,
    "تعتقد": 2112,
    "لفهو": 2110,
    "شت": 2108,
    "لظلم": 2107,
    "تصنع": 2106,
    "قعي": 2106,
    "لشغب": 2106,
    "ميذ": 2105,
    "جلها": 2104,
    "جمه": 2104,
    "عتقل": 2104,
    "صيلها": 2104,
    "ستبا": 2103,
    "مفخخة": 2102,
    "سيط": 2101,
    "تستفيد": 2100,
    "لمستحقة": 2100,
    "سبيت": 2099,
    "نيسا": 2099,
    "لكحو": 2099,
    "تنتمي": 2099,
    "يخشى": 2099,
    "مستر": 2099,
    "يتبا": 2098,
    "لعجو": 2098,
    "متفو": 2094,
    "جمعيا": 2094,
    "لمضطر": 2094,
    "لتمد": 2093,
    "ضيف": 2092,
    "مينيك": 2091,
    "عيه": 2090,
    "كيتا": 2088,
    "لصخر": 2088,
    "تكفل": 2087,
    "تعميم": 2087,
    "يتفا": 2086,
    "ستظل": 2085,
    "غية": 2085,
    "يحصلو": 2084,
    "لصحو": 2084,
    "للتحر": 2082,
    "قمشة": 2080,
    "تستقطب": 2079,
    "يبهم": 2079,
    "للفتر": 2077,
    "لسكو": 2077,
    "لفيضا": 2076,
    "ببسا": 2073,
    "بتغيير": 2073,
    "متهما": 2072,
    "لمشجعين": 2072,
    "لطبقة": 2072,
    "لمظهر": 2071,
    "بحصو": 2070,
    "ختطا": 2070,
    "مشهو": 2069,
    "سعيها": 2068,
    "ىس": 2068,
    "لمضمر": 2065,
    "كنو": 2063,
    "مكة": 2062,
    "نيكية": 2060,
    "لحشر": 2060,
    "لكيا": 2059,
    "ستشر": 2059,
    "متما": 2059,
    "مكعب": 2059,
    "مثلة": 2057,
    "بمجا": 2057,
    "حققو": 2054,
    "لقحطا": 2054,
    "حلته": 2054,
    "لتشيكي": 2052,
    "ضعتها": 2050,
    "عتنا": 2050,
    "يميا": 2050,
    "غه": 2050,
    "تفقت": 2049,
    "لبحير": 2049,
    "تتصد": 2046,
    "لتفعيل": 2046,
    "هلت": 2046,
    "بضا": 2046,
    "صحفيا": 2044,
    "تشغل": 2043,
    "بصفته": 2043,
    "تنطو": 2042,
    "لملكة": 2041,
    "بهيىة": 2041,
    "للحز": 2040,
    "سجلها": 2040,
    "منحه": 2040,
    "بيني": 2039,
    "بلغة": 2038,
    "ينشر": 2036,
    "لفعلي": 2035,
    "لمسجلين": 2035,
    "سبر": 2035,
    "لمعتد": 2034,
    "مثلها": 2033,
    "لمكلف": 2031,
    "للنها": 2031,
    "محسو": 2031,
    "يمته": 2029,
    "تستند": 2028,
    "لجليل": 2027,
    "مصنو": 2025,
    "نشطا": 2024,
    "ختفا": 2024,
    "لمنهج": 2024,
    "بسط": 2023,
    "لقبلية": 2022,
    "لبطين": 2022,
    "جله": 2020,
    "طهم": 2020,
    "طعم": 2019,
    "لمكتبا": 2019,
    "لينج": 2018,
    "يخيا": 2018,
    "جبه": 2017,
    "بمخا": 2015,
    "تسيير": 2015,
    "للتحقيق": 2015,
    "عمهم": 2015,
    "يحسب": 2014,
    "معتز": 2014,
    "نظيفين": 2014,
    "ثلث": 2014,
    "هيك": 2013,
    "ستستمر": 2011,
    "للتعبير": 2010,
    "هيلية": 2010,
    "لسجل": 2008,
    "فينا": 2007,
    "لكميا": 2006,
    "بنته": 2006,
    "بجما": 2004,
    "يحتذ": 2003,
    "سكي": 2002,
    "ىلي": 2002,
    "يبعد": 2002,
    "ىبه": 2002,
    "شتملت": 1999,
    "تحميل": 1998,
    "لمخلفا": 1997,
    "يمكنك": 1997,
    "خلفه": 1996,
    "فكيف": 1996,
    "ينتي": 1996,
    "تتحقق": 1993,
    "سيلعب": 1993,
    "تفيا": 1993,
    "سطية": 1993,
    "فيهما": 1993,
    "بجز": 1993,
    "يقهم": 1993,
    "لحجز": 1992,
    "جغر": 1991,
    "بقصد": 1990,
    "ىفة": 1990,
    "يتعد": 1990,
    "لجملة": 1990,
    "نمت": 1988,
    "صلين": 1986,
    "بمعر": 1986,
    "تمتا": 1986,
    "يبين": 1984,
    "يتصل": 1984,
    "لفتو": 1983,
    "بملعب": 1982,
    "لكبد": 1982,
    "يتضح": 1981,
    "لمسلسلا": 1979,
    "نجي": 1979,
    "خضا": 1976,
    "منحها": 1976,
    "حثة": 1972,
    "جيت": 1972,
    "طفلة": 1970,
    "هيبي": 1970,
    "ليفير": 1970,
    "مغلقة": 1969,
    "بمثل": 1968,
    "بتجر": 1967,
    "نلي": 1967,
    "تخلو": 1964,
    "لنثر": 1962,
    "هني": 1962,
    "صبحو": 1962,
    "فتقا": 1961,
    "لجسر": 1960,
    "مسمى": 1960,
    "لمقيم": 1957,
    "عيها": 1956,
    "فظت": 1954,
    "نيكا": 1954,
    "تقب": 1953,
    "كبد": 1953,
    "لشعبين": 1952,
    "خطتها": 1952,
    "ينتش": 1952,
    "لمعيشة": 1952,
    "حشر": 1951,
    "للجهو": 1951,
    "بفعا": 1950,
    "لبني": 1950,
    "فسيه": 1949,
    "بطها": 1949,
    "بصحة": 1946,
    "تنشر": 1946,
    "بصنا": 1945,
    "بفتح": 1945,
    "لسمر": 1945,
    "لعطو": 1944,
    "جيتس": 1944,
    "لمنجز": 1944,
    "فتحي": 1943,
    "لبهجة": 1941,
    "لتخصص": 1941,
    "سلبي": 1941,
    "فضها": 1938,
    "كشا": 1937,
    "لبها": 1937,
    "ستبيا": 1937,
    "فبا": 1936,
    "ننسى": 1935,
    "لمتسو": 1932,
    "طلقو": 1930,
    "مخطط": 1929,
    "لمحلا": 1928,
    "ىين": 1928,
    "نملك": 1927,
    "لصينيين": 1926,
    "تكليف": 1926,
    "يمين": 1925,
    "عميقة": 1925,
    "يجلس": 1923,
    "لفحم": 1922,
    "نشهد": 1922,
    "جتمع": 1921,
    "فقو": 1921,
    "يشة": 1920,
    "لعثما": 1919,
    "تكبد": 1919,
    "لمنتسبين": 1917,
    "لمنطق": 1917,
    "لمكتو": 1917,
    "يتمتعو": 1917,
    "لعنز": 1916,
    "نغا": 1916,
    "لشمر": 1915,
    "يسعو": 1915,
    "سيحد": 1913,
    "تحيط": 1913,
    "ضعنا": 1912,
    "لسهو": 1912,
    "حقيبة": 1911,
    "تكفي": 1911,
    "نق": 1910,
    "لخلل": 1909,
    "لمحظو": 1909,
    "كيبة": 1909,
    "عظيم": 1906,
    "مطلقا": 1906,
    "عيش": 1906,
    "لجنس": 1905,
    "تستحو": 1905,
    "مستقل": 1904,
    "تمسك": 1904,
    "محفظة": 1903,
    "للتخطيط": 1903,
    "غي": 1901,
    "لعبها": 1900,
    "سيسه": 1900,
    "جتي": 1900,
    "كهة": 1900,
    "لمجلا": 1899,
    "يلفت": 1898,
    "لمبعو": 1898,
    "كلهم": 1896,
    "لشقيق": 1895,
    "ليت": 1895,
    "جميعهم": 1895,
    "فعية": 1895,
    "لمكلفة": 1894,
    "للهجة": 1893,
    "ملحة": 1893,
    "كييف": 1893,
    "لمصنو": 1892,
    "مثمنا": 1892,
    "غسل": 1892,
    "يمتا": 1891,
    "لقه": 1891,
    "لغني": 1890,
    "سلعة": 1889,
    "لمتلا": 1889,
    "خلة": 1888,
    "لنقو": 1887,
    "يقته": 1887,
    "حلي": 1887,
    "لمضمو": 1886,
    "للغتين": 1886,
    "بشيء": 1885,
    "نفسك": 1885,
    "سيبا": 1884,
    "للمستقبل": 1883,
    "فيل": 1882,
    "لنقيب": 1881,
    "نعتبر": 1881,
    "طفيف": 1880,
    "قبلها": 1879,
    "تتقد": 1879,
    "فعنا": 1878,
    "تستقبل": 1877,
    "لمكسيكي": 1877,
    "كمحصلة": 1877,
    "بمسو": 1876,
    "لكة": 1876,
    "لصلب": 1875,
    "تيحت": 1873,
    "شعبها": 1872,
    "لسيف": 1872,
    "عميق": 1872,
    "بمصا": 1872,
    "يشكلو": 1872,
    "سيظل": 1872,
    "تنتقل": 1872,
    "شيك": 1872,
    "لقمع": 1872,
    "لقبر": 1871,
    "بتفا": 1870,
    "لخصا": 1868,
    "طفة": 1867,
    "حمز": 1866,
    "يكمل": 1866,
    "للمسو": 1866,
    "يتسع": 1865,
    "لسجنا": 1865,
    "تتكر": 1865,
    "للكشف": 1863,
    "لجمل": 1862,
    "مينة": 1862,
    "لمكشو": 1861,
    "لمستحيل": 1861,
    "شطين": 1860,
    "لسحا": 1860,
    "لسيسي": 1859,
    "لشمو": 1857,
    "هيب": 1857,
    "منهج": 1856,
    "تهو": 1855,
    "بمصر": 1855,
    "لفضة": 1855,
    "لمحل": 1855,
    "فهمي": 1853,
    "لمنكو": 1852,
    "يصنع": 1851,
    "مجتمعنا": 1851,
    "محبو": 1851,
    "ميها": 1850,
    "سيتر": 1849,
    "صيبو": 1847,
    "يمبا": 1847,
    "ليته": 1845,
    "لمعز": 1844,
    "للصحا": 1843,
    "للكثير": 1843,
    "لمسنين": 1842,
    "خلل": 1841,
    "نفكر": 1841,
    "يستعيد": 1840,
    "شخصين": 1840,
    "سمعت": 1840,
    "مستجد": 1840,
    "قلبه": 1839,
    "خصيف": 1839,
    "لطيفة": 1835,
    "مشغو": 1835,
    "تنجح": 1834,
    "تحضر": 1834,
    "ينطو": 1832,
    "معلما": 1830,
    "علميا": 1830,
    "لشك": 1829,
    "عتيق": 1829,
    "ثقيلة": 1828,
    "معطيا": 1828,
    "يتلقى": 1827,
    "يحفظ": 1827,
    "لحفلا": 1827,
    "لتنقيب": 1825,
    "غطا": 1822,
    "فتنا": 1822,
    "تسمت": 1822,
    "طفيفة": 1821,
    "هلهم": 1819,
    "ىكة": 1819,
    "للصر": 1819,
    "يفتقد": 1818,
    "كلف": 1818,
    "للعقا": 1818,
    "فيتا": 1818,
    "يسقط": 1817,
    "تمييز": 1817,
    "ضتها": 1815,
    "مليىة": 1815,
    "يستقطب": 1814,
    "لحقل": 1813,
    "ينظمه": 1813,
    "بهر": 1813,
    "مبخو": 1813,
    "فييتي": 1812,
    "لتحمل": 1811,
    "ملز": 1810,
    "نضا": 1809,
    "للمستخد": 1809,
    "جسم": 1809,
    "لحليب": 1808,
    "صهم": 1808,
    "لتشيلي": 1807,
    "مقصو": 1806,
    "عش": 1806,
    "طنيها": 1804,
    "ينسجم": 1804,
    "يتفو": 1804,
    "لتجمعا": 1804,
    "محذ": 1804,
    "تفكر": 1803,
    "سجا": 1803,
    "تصعيد": 1802,
    "قفو": 1800,
    "نيت": 1800,
    "لفصو": 1799,
    "تمكنو": 1799,
    "هيلهم": 1798,
    "تسخير": 1797,
    "لصقر": 1797,
    "نفق": 1796,
    "بكلمة": 1794,
    "تعمد": 1793,
    "جتذ": 1793,
    "ظلا": 1793,
    "ليسجل": 1792,
    "لحلبة": 1792,
    "لخمسين": 1790,
    "تتسا": 1789,
    "كهذ": 1789,
    "نكن": 1788,
    "غنتو": 1786,
    "سيستمر": 1785,
    "مغلقا": 1785,
    "شكلا": 1785,
    "سبقت": 1784,
    "بحثت": 1782,
    "كبو": 1782,
    "قتد": 1782,
    "جلفا": 1782,
    "يمضي": 1781,
    "لتعذ": 1780,
    "غند": 1780,
    "بتي": 1779,
    "ييل": 1777,
    "هتز": 1776,
    "للسر": 1776,
    "بلغا": 1775,
    "لل": 1774,
    "نتم": 1774,
    "لنبيلة": 1773,
    "تيك": 1773,
    "تفضل": 1772,
    "لكنيسة": 1772,
    "ظه": 1771,
    "يفين": 1771,
    "ستبقى": 1771,
    "للبتر": 1770,
    "فسكي": 1770,
    "لنسب": 1769,
    "بيس": 1769,
    "جهنا": 1768,
    "لمتفو": 1768,
    "تطلع": 1767,
    "سبها": 1767,
    "حله": 1767,
    "يلعبو": 1766,
    "لنسخ": 1766,
    "لتشد": 1765,
    "يخلق": 1765,
    "لمفيد": 1764,
    "تجمعا": 1764,
    "لمنطلق": 1763,
    "تخطى": 1762,
    "لفيصل": 1761,
    "متطر": 1760,
    "يتسم": 1759,
    "لمتلقي": 1758,
    "يبحثو": 1758,
    "حملته": 1758,
    "لغمو": 1756,
    "لبهم": 1755,
    "يمكنني": 1755,
    "ثمينة": 1754,
    "يشد": 1754,
    "حصلو": 1754,
    "هبا": 1753,
    "للنجا": 1753,
    "يعه": 1752,
    "فهما": 1752,
    "للمنظمة": 1752,
    "تحمله": 1751,
    "تسمية": 1751,
    "تشخيص": 1751,
    "سلمية": 1750,
    "تكبها": 1749,
    "عفو": 1748,
    "عبيل": 1748,
    "بخر": 1746,
    "لتشخيص": 1746,
    "ممتلكا": 1746,
    "للمعلو": 1745,
    "مستند": 1745,
    "يستند": 1745,
    "لنهر": 1744,
    "ينقل": 1744,
    "شخصيته": 1743,
    "ميك": 1743,
    "يفتتح": 1743,
    "هيلي": 1742,
    "نصل": 1742,
    "نسمع": 1738,
    "مهنية": 1737,
    "بقى": 1736,
    "بعكس": 1736,
    "لضخم": 1736,
    "فيس": 1736,
    "يتكر": 1735,
    "للنقل": 1735,
    "للتحد": 1735,
    "فظين": 1734,
    "لصهيو": 1732,
    "لخشب": 1732,
    "قتيل": 1731,
    "لغش": 1731,
    "لجتها": 1730,
    "لبنفسج": 1730,
    "ملت": 1729,
    "مسلح": 1728,
    "فقية": 1727,
    "هيثم": 1726,
    "شطو": 1725,
    "ثني": 1724,
    "قبيلة": 1723,
    "بحجة": 1721,
    "معقل": 1721,
    "تينا": 1720,
    "محتملة": 1718,
    "ختم": 1718,
    "غبتها": 1718,
    "فتين": 1717,
    "يسة": 1717,
    "نغو": 1716,
    "فلسفة": 1716,
    "محفز": 1716,
    "لمنتخبنا": 1716,
    "مخلفا": 1716,
    "مخططا": 1714,
    "لفنلند": 1714,
    "خشبة": 1714,
    "لمعني": 1714,
    "بحز": 1713,
    "سيبقى": 1711,
    "خيل": 1711,
    "تعلق": 1711,
    "لمهلة": 1710,
    "مكثف": 1709,
    "لهيد": 1708,
    "للنهو": 1708,
    "يتجه": 1706,
    "ممتعة": 1706,
    "لمعيشية": 1705,
    "صلب": 1705,
    "لصفحة": 1705,
    "للبد": 1705,
    "نجمة": 1705,
    "ننظر": 1704,
    "شلا": 1704,
    "للنز": 1703,
    "قتهم": 1703,
    "هها": 1703,
    "مسك": 1701,
    "لشغل": 1700,
    "لمتعلق": 1699,
    "مصممة": 1698,
    "يميل": 1696,
    "لجسو": 1696,
    "شعبه": 1696,
    "سلع": 1696,
    "لتقيد": 1694,
    "خشية": 1694,
    "غني": 1693,
    "تعطيل": 1692,
    "فيتي": 1692,
    "للسكا": 1691,
    "سمحت": 1691,
    "منجز": 1691,
    "للعنا": 1690,
    "متخصصين": 1690,
    "عظيمة": 1690,
    "بقتل": 1689,
    "تكتمل": 1688,
    "شعبنا": 1688,
    "صيغة": 1687,
    "جمت": 1686,
    "هبطت": 1685,
    "تستد": 1685,
    "لمتنز": 1685,
    "لمغلقة": 1685,
    "سكيب": 1685,
    "تحتضن": 1684,
    "للسلع": 1684,
    "تثقيف": 1683,
    "ستعقد": 1683,
    "منحهم": 1683,
    "لتميمي": 1683,
    "بقليل": 1683,
    "تيمو": 1683,
    "لشهد": 1683,
    "لمطعم": 1682,
    "يتجز": 1681,
    "للتقد": 1681,
    "لمتتا": 1681,
    "محمية": 1680,
    "لعتيبة": 1680,
    "نضع": 1679,
    "بمما": 1679,
    "لبعثا": 1678,
    "تحب": 1678,
    "لكتلة": 1677,
    "سيب": 1677,
    "قعنا": 1676,
    "ينيا": 1676,
    "للمتعا": 1676,
    "فعهم": 1673,
    "سلفا": 1673,
    "لكيلو": 1673,
    "سيكي": 1673,
    "لنشطة": 1672,
    "للي": 1672,
    "حسنا": 1672,
    "حقها": 1672,
    "للمنتخبا": 1671,
    "ستهم": 1671,
    "يغر": 1671,
    "جميلا": 1670,
    "شتمل": 1670,
    "لقلا": 1670,
    "للمخا": 1669,
    "حصص": 1669,
    "تنشط": 1668,
    "لمنتجين": 1668,
    "لسبيل": 1665,
    "لجفا": 1665,
    "لمنعم": 1665,
    "تجذ": 1664,
    "نضمت": 1664,
    "مكتسبا": 1664,
    "طفية": 1662,
    "حظت": 1661,
    "لنيو": 1660,
    "عشق": 1660,
    "يهة": 1659,
    "ينهي": 1658,
    "متشا": 1657,
    "لخفيف": 1656,
    "ينمو": 1655,
    "لسمعة": 1654,
    "جمعه": 1654,
    "عبنا": 1654,
    "ىك": 1654,
    "تحفظ": 1653,
    "فتهم": 1652,
    "ملكة": 1652,
    "تعلمت": 1651,
    "لكسب": 1651,
    "طيبا": 1651,
    "بثقة": 1650,
    "جلين": 1649,
    "ميني": 1649,
    "لنصية": 1648,
    "لمعقد": 1647,
    "مستهل": 1647,
    "فعلت": 1646,
    "تتلا": 1646,
    "شه": 1646,
    "لميل": 1645,
    "لمحميا": 1644,
    "للكهر": 1643,
    "هه": 1643,
    "للعين": 1643,
    "لتعب": 1642,
    "مخصص": 1639,
    "جثث": 1636,
    "مجو": 1636,
    "سخر": 1635,
    "لطفي": 1634,
    "جلس": 1633,
    "حيله": 1632,
    "خلد": 1631,
    "يعيشها": 1630,
    "تق": 1630,
    "نتجت": 1630,
    "لسطو": 1630,
    "لشقة": 1630,
    "لمتصلة": 1629,
    "للثو": 1629,
    "ليج": 1628,
    "لنمط": 1627,
    "منخفض": 1627,
    "لفنيين": 1626,
    "كتبه": 1626,
    "سكة": 1625,
    "للسلطة": 1624,
    "يء": 1623,
    "للبيا": 1622,
    "منك": 1622,
    "لمطلقة": 1622,
    "لمعمر": 1621,
    "لعسل": 1620,
    "لتسلل": 1620,
    "لفنز": 1619,
    "يستعر": 1619,
    "شنا": 1617,
    "منشو": 1616,
    "تشجيعهم": 1615,
    "طبيعيا": 1615,
    "بيتها": 1614,
    "عشية": 1614,
    "للحم": 1613,
    "لضيق": 1611,
    "للسيطر": 1611,
    "يفضلو": 1611,
    "لخ": 1610,
    "مكن": 1610,
    "لتحصيل": 1606,
    "تستا": 1606,
    "سمت": 1605,
    "لمتفا": 1605,
    "عطت": 1604,
    "خيلا": 1604,
    "لتنفس": 1604,
    "سيسهم": 1603,
    "كض": 1601,
    "تكم": 1600,
    "ليتر": 1598,
    "لجنسي": 1598,
    "نينة": 1597,
    "يتلا": 1597,
    "مسد": 1596,
    "ميلو": 1596,
    "يشكو": 1596,
    "هظة": 1596,
    "مضة": 1595,
    "نجل": 1594,
    "متكر": 1594,
    "سبقه": 1593,
    "شيف": 1593,
    "لمهجنة": 1592,
    "هطو": 1590,
    "لمخلو": 1589,
    "هتا": 1589,
    "يتسنى": 1589,
    "غينيا": 1589,
    "تتنو": 1588,
    "لشبو": 1588,
    "كلي": 1586,
    "يفسر": 1586,
    "لمتصا": 1584,
    "حكمت": 1584,
    "لقنصل": 1584,
    "لمتنقلة": 1584,
    "حتي": 1583,
    "لينتهي": 1583,
    "بصما": 1583,
    "نبحث": 1582,
    "لمطبقة": 1582,
    "لنمر": 1582,
    "مسكن": 1581,
    "بتصر": 1580,
    "لفه": 1580,
    "ىمو": 1578,
    "لبخا": 1578,
    "للمستو": 1578,
    "ينصح": 1577,
    "نعمة": 1577,
    "بىر": 1577,
    "لمسلمو": 1577,
    "لتمتع": 1577,
    "سميث": 1577,
    "ههم": 1577,
    "خفضت": 1576,
    "لسلطنة": 1576,
    "ىت": 1575,
    "لفقيد": 1574,
    "لكذ": 1573,
    "لكنا": 1573,
    "ينفر": 1573,
    "قتلا": 1573,
    "ستسلا": 1572,
    "لعصبية": 1571,
    "تعبىة": 1570,
    "لحمو": 1570,
    "طقم": 1570,
    "بخير": 1570,
    "بنفسها": 1569,
    "بكثا": 1569,
    "متهمين": 1569,
    "بفكر": 1568,
    "معتر": 1568,
    "ينر": 1567,
    "لمقبو": 1567,
    "يبتعد": 1567,
    "لمستلز": 1567,
    "حتبا": 1566,
    "بشهر": 1566,
    "لخشبية": 1565,
    "مفتر": 1565,
    "لمقعد": 1563,
    "للقمة": 1562,
    "تخلى": 1561,
    "عمير": 1561,
    "طت": 1560,
    "للتنا": 1560,
    "يبها": 1559,
    "شفة": 1559,
    "بتحر": 1559,
    "منظم": 1559,
    "نلا": 1558,
    "سجو": 1558,
    "نيتش": 1558,
    "لسكني": 1556,
    "عيلي": 1556,
    "قلية": 1555,
    "لتهو": 1555,
    "نبهم": 1554,
    "بضع": 1554,
    "بعه": 1554,
    "سيتا": 1553,
    "للصا": 1553,
    "يسمع": 1553,
    "لمقهى": 1552,
    "مثله": 1552,
    "نجحو": 1551,
    "تنعكس": 1551,
    "لنخلة": 1550,
    "ستثمر": 1550,
    "يحلم": 1550,
    "صينية": 1549,
    "لعميقة": 1549,
    "يص": 1549,
    "مجز": 1549,
    "بنجلا": 1548,
    "لمسيحية": 1548,
    "لضعيفة": 1546,
    "بتجا": 1545,
    "متجد": 1545,
    "ليفيير": 1544,
    "متغير": 1544,
    "لمضر": 1544,
    "يثها": 1543,
    "لسلك": 1543,
    "ييف": 1542,
    "مصمم": 1542,
    "يحتفظ": 1541,
    "سيحصل": 1541,
    "تحتر": 1539,
    "طفي": 1539,
    "للتنس": 1538,
    "كتىا": 1537,
    "لتحية": 1537,
    "بنظر": 1536,
    "لسلعة": 1535,
    "عكا": 1535,
    "حتفظ": 1535,
    "لمثمر": 1535,
    "يتمكنو": 1535,
    "لخلو": 1534,
    "لخصم": 1532,
    "بتقنية": 1531,
    "مجتمعية": 1530,
    "ستحسا": 1530,
    "للمكا": 1530,
    "لمستقبلي": 1530,
    "تخفيضا": 1528,
    "نسخ": 1528,
    "منفصلة": 1527,
    "بفتر": 1527,
    "مقيا": 1527,
    "عينة": 1524,
    "صيبت": 1522,
    "عينه": 1522,
    "نسختها": 1521,
    "كيميا": 1521,
    "لمسكن": 1520,
    "يمني": 1520,
    "منتسبي": 1520,
    "لكس": 1519,
    "نكم": 1519,
    "منسو": 1518,
    "ختير": 1517,
    "لليبر": 1517,
    "لحيطة": 1516,
    "يجعلنا": 1515,
    "لتخفيض": 1514,
    "هتم": 1514,
    "ىهما": 1514,
    "مبعو": 1514,
    "بتين": 1512,
    "لمختا": 1512,
    "منعت": 1512,
    "ستصد": 1511,
    "لمصمم": 1511,
    "فشا": 1510,
    "طقة": 1510,
    "غبتهم": 1508,
    "جعه": 1507,
    "صحو": 1507,
    "ممنو": 1506,
    "قفل": 1505,
    "لتنظيف": 1505,
    "تبنى": 1505,
    "مشعل": 1505,
    "ينضم": 1504,
    "كشو": 1504,
    "لسكك": 1503,
    "سبه": 1503,
    "بيث": 1503,
    "نقضا": 1503,
    "لتخصصية": 1503,
    "لنحل": 1503,
    "مقيم": 1502,
    "لكثا": 1501,
    "تليق": 1501,
    "نعي": 1499,
    "كحد": 1499,
    "نبد": 1499,
    "تلتقي": 1499,
    "سنحت": 1498,
    "هس": 1496,
    "لحصص": 1496,
    "بخو": 1495,
    "ببيع": 1494,
    "لفضيل": 1494,
    "حصتها": 1494,
    "تسيو": 1493,
    "ظمة": 1492,
    "تنميتها": 1492,
    "حلمي": 1491,
    "لتقت": 1490,
    "تقلبا": 1490,
    "بخيت": 1489,
    "يبير": 1489,
    "منتشر": 1488,
    "لنيجر": 1488,
    "يميين": 1487,
    "يتبع": 1487,
    "لفد": 1486,
    "ميجو": 1486,
    "صممت": 1485,
    "نحسا": 1485,
    "سلكية": 1485,
    "ليعو": 1485,
    "عليكم": 1485,
    "ثنتين": 1484,
    "تغيب": 1484,
    "كيس": 1484,
    "لتعميم": 1483,
    "بيح": 1481,
    "محصو": 1481,
    "علقت": 1480,
    "لحبيب": 1480,
    "للهجو": 1480,
    "تختا": 1480,
    "لقنصلية": 1479,
    "لمعيا": 1479,
    "لقيت": 1478,
    "بمكتب": 1478,
    "لمنحة": 1477,
    "نجيلا": 1475,
    "محضر": 1474,
    "سيخو": 1474,
    "سيك": 1474,
    "جنة": 1474,
    "معلنا": 1474,
    "لفهيم": 1473,
    "كفيلة": 1473,
    "تستثمر": 1471,
    "ىلين": 1470,
    "سلها": 1470,
    "لمحللو": 1470,
    "كفة": 1469,
    "شخصي": 1469,
    "مطبو": 1469,
    "كملها": 1468,
    "نصت": 1467,
    "مفصل": 1466,
    "سهر": 1466,
    "لتبلغ": 1465,
    "ينسى": 1465,
    "نجما": 1464,
    "بعته": 1464,
    "بسحب": 1464,
    "للفعا": 1464,
    "يطبق": 1464,
    "بشها": 1464,
    "مض": 1463,
    "بنقطة": 1463,
    "لخلفي": 1462,
    "لبنتا": 1462,
    "سينج": 1462,
    "قشتها": 1461,
    "بتتو": 1461,
    "عينيه": 1460,
    "لجعل": 1460,
    "يحكم": 1459,
    "تسجيلها": 1459,
    "يصف": 1458,
    "لحبسي": 1458,
    "تمة": 1457,
    "تيل": 1457,
    "تسلمت": 1457,
    "شهير": 1456,
    "لمثلى": 1456,
    "لفتنة": 1453,
    "لمشغو": 1453,
    "لظل": 1452,
    "ستند": 1452,
    "لمحمية": 1452,
    "لعطية": 1452,
    "لصعا": 1451,
    "لمخ": 1451,
    "لكيفية": 1451,
    "بمنح": 1449,
    "لشيبا": 1449,
    "لحثيثة": 1448,
    "هكتا": 1447,
    "صحيحا": 1447,
    "مثمر": 1446,
    "خيصة": 1446,
    "للمحكمة": 1446,
    "تحتفظ": 1445,
    "سيحا": 1445,
    "نينيا": 1444,
    "طبيعتها": 1443,
    "لحبتو": 1443,
    "صيفا": 1442,
    "مشجع": 1442,
    "سيسية": 1442,
    "محملة": 1441,
    "لمتفق": 1441,
    "لكلو": 1441,
    "تضح": 1441,
    "حس": 1441,
    "ييه": 1440,
    "تميل": 1440,
    "لثلث": 1440,
    "لمخصصا": 1440,
    "منخفضا": 1439,
    "تصميمها": 1439,
    "صبحنا": 1438,
    "عتلا": 1438,
    "لطبخ": 1437,
    "لمس": 1437,
    "للتحو": 1437,
    "لمعقو": 1437,
    "لطين": 1436,
    "تسفر": 1436,
    "خشا": 1436,
    "مطلقة": 1435,
    "تمز": 1435,
    "نحيا": 1434,
    "قسو": 1434,
    "للصيد": 1434,
    "بحذ": 1433,
    "لهير": 1432,
    "منطقتي": 1432,
    "معما": 1432,
    "تصيب": 1431,
    "مجهم": 1431,
    "محبة": 1430,
    "مخة": 1428,
    "حقبة": 1428,
    "لملح": 1428,
    "فخ": 1427,
    "تكسا": 1427,
    "لنسيج": 1427,
    "بعتها": 1426,
    "مقبلة": 1426,
    "جلت": 1425,
    "لستين": 1425,
    "لمنخفضة": 1425,
    "عيني": 1425,
    "تسليمها": 1425,
    "ليفة": 1423,
    "فقير": 1422,
    "لمتهمة": 1421,
    "تكتب": 1421,
    "لمصممة": 1421,
    "مكتبا": 1421,
    "يستغل": 1419,
    "لمبيد": 1419,
    "لفلسطينيو": 1419,
    "للتكنو": 1418,
    "يخطط": 1418,
    "لحلقا": 1418,
    "تتصل": 1417,
    "حتفلت": 1417,
    "لبصمة": 1417,
    "يحذ": 1415,
    "يجتمع": 1415,
    "تتبنا": 1414,
    "علنا": 1413,
    "نقة": 1413,
    "تحسنا": 1412,
    "مسبقة": 1412,
    "تختص": 1412,
    "للنقا": 1411,
    "سيلا": 1411,
    "للنو": 1409,
    "بمضما": 1409,
    "للمنتجا": 1409,
    "سطي": 1408,
    "ستقطبت": 1407,
    "نيد": 1407,
    "نيته": 1406,
    "لثغر": 1406,
    "تجعله": 1406,
    "مثلت": 1406,
    "شقيق": 1405,
    "ثعلو": 1404,
    "تعطل": 1404,
    "يصيب": 1404,
    "عنة": 1403,
    "ختلف": 1403,
    "لمنتجعا": 1402,
    "بتسجيله": 1402,
    "طنهم": 1402,
    "تقلص": 1402,
    "للحكم": 1401,
    "تبيع": 1400,
    "لمنسو": 1399,
    "بتعيين": 1399,
    "لشيا": 1399,
    "فلسطينيا": 1397,
    "لكسر": 1396,
    "بقتين": 1396,
    "تبنت": 1396,
    "خليا": 1396,
    "عقبا": 1395,
    "تحية": 1395,
    "معلم": 1395,
    "تضطلع": 1394,
    "كيت": 1394,
    "خلص": 1394,
    "للتخلص": 1394,
    "لمكتسبا": 1394,
    "حبي": 1393,
    "غسا": 1393,
    "جمعها": 1393,
    "لمكثفة": 1393,
    "لتطلعا": 1392,
    "تتطو": 1391,
    "مقطو": 1391,
    "فنلند": 1391,
    "مجتمعة": 1390,
    "لتكيف": 1389,
    "بكثر": 1388,
    "تتقا": 1388,
    "تفتقر": 1388,
    "لمسلمة": 1387,
    "هيمي": 1387,
    "حكمة": 1386,
    "يحيط": 1386,
    "معهما": 1385,
    "نهو": 1385,
    "بكتا": 1385,
    "ليقد": 1383,
    "نتينا": 1383,
    "لمسيحيين": 1382,
    "لتفسير": 1382,
    "مستهد": 1380,
    "مسكنا": 1379,
    "بيتي": 1379,
    "طلين": 1378,
    "لسطح": 1378,
    "عقيد": 1377,
    "للصحة": 1377,
    "بخفض": 1377,
    "هبهم": 1376,
    "ىحين": 1376,
    "لصلبة": 1376,
    "ستيف": 1376,
    "لعظيمة": 1376,
    "لمفضل": 1376,
    "لحس": 1375,
    "همي": 1374,
    "لسهلة": 1374,
    "تفها": 1373,
    "سفيا": 1372,
    "بصحبة": 1371,
    "تتبعها": 1371,
    "سيعر": 1369,
    "نثر": 1368,
    "بيلو": 1367,
    "حتجز": 1367,
    "للمها": 1366,
    "ينهو": 1366,
    "لفم": 1366,
    "للسما": 1365,
    "طقو": 1365,
    "حتفل": 1364,
    "فقته": 1364,
    "صحف": 1362,
    "لمقلد": 1362,
    "ىقية": 1361,
    "يعهم": 1360,
    "ضعو": 1360,
    "متي": 1360,
    "حنيف": 1358,
    "سطن": 1357,
    "لتخصيب": 1357,
    "صيله": 1356,
    "لسبق": 1356,
    "لحبيبة": 1356,
    "بنى": 1355,
    "تتبنى": 1355,
    "مقهى": 1355,
    "شكلها": 1355,
    "تنسى": 1355,
    "لتنز": 1354,
    "محتمل": 1353,
    "ضعيف": 1352,
    "سلمت": 1351,
    "ممكنا": 1351,
    "لمعلنة": 1350,
    "لمغني": 1350,
    "تنخفض": 1350,
    "تسهل": 1350,
    "مخيما": 1350,
    "يستبعد": 1349,
    "يلقى": 1349,
    "لتسعينيا": 1348,
    "عنق": 1348,
    "سيميا": 1348,
    "للنشر": 1347,
    "لهيكلة": 1346,
    "بحثية": 1343,
    "بنشا": 1343,
    "تتفق": 1342,
    "عج": 1342,
    "شبح": 1341,
    "لتكتيكية": 1340,
    "نصية": 1340,
    "لهنو": 1340,
    "تسجيله": 1339,
    "صمم": 1339,
    "بطه": 1339,
    "لتشيك": 1338,
    "فيهي": 1338,
    "تحطيم": 1338,
    "لفيكتو": 1338,
    "ينتشر": 1337,
    "مهن": 1335,
    "متعلقة": 1335,
    "مسيا": 1334,
    "بيي": 1332,
    "للطو": 1331,
    "مضي": 1331,
    "كملت": 1330,
    "عكست": 1330,
    "مشجعي": 1330,
    "للمنشا": 1330,
    "سطر": 1330,
    "ملم": 1330,
    "لبي": 1329,
    "علت": 1329,
    "تقلل": 1329,
    "تتهم": 1329,
    "نيتها": 1329,
    "يخلو": 1329,
    "لملحو": 1328,
    "تحسبا": 1328,
    "للحضو": 1328,
    "عفت": 1327,
    "نتمكن": 1327,
    "ببد": 1324,
    "بظلا": 1324,
    "ملبو": 1324,
    "شلة": 1324,
    "شقق": 1324,
    "لعميمي": 1323,
    "بمنع": 1323,
    "ممد": 1323,
    "نسبر": 1322,
    "لحنيف": 1322,
    "لمستعملة": 1322,
    "لمبو": 1321,
    "لحليم": 1321,
    "نحد": 1320,
    "يمتلكو": 1320,
    "تلجا": 1320,
    "بكميا": 1320,
    "هجن": 1320,
    "كتبها": 1319,
    "ميس": 1319,
    "للفن": 1319,
    "للمستهلكين": 1317,
    "لفية": 1317,
    "للجر": 1316,
    "ميليشيا": 1316,
    "متنها": 1316,
    "فء": 1316,
    "غلبها": 1316,
    "نسيسكو": 1316,
    "لليز": 1315,
    "لنية": 1314,
    "صمت": 1314,
    "نش": 1313,
    "ستقطب": 1313,
    "لمح": 1313,
    "لحسيني": 1312,
    "بتصميم": 1312,
    "قلص": 1311,
    "سنر": 1311,
    "ميلتو": 1310,
    "جيم": 1309,
    "خنا": 1309,
    "تبث": 1309,
    "لتخفيضا": 1309,
    "منتظمة": 1306,
    "لممز": 1306,
    "مسلحا": 1306,
    "سمك": 1306,
    "شعبة": 1306,
    "حتفهم": 1306,
    "ببطا": 1305,
    "تعكف": 1304,
    "مصحو": 1303,
    "بلبا": 1303,
    "كليب": 1303,
    "لشعفا": 1302,
    "تطل": 1302,
    "تعيشها": 1302,
    "لصمو": 1302,
    "نمر": 1301,
    "لنشء": 1301,
    "تستكمل": 1301,
    "لتلفا": 1300,
    "بيسر": 1300,
    "سيشكل": 1300,
    "بخمسة": 1300,
    "تمنيا": 1300,
    "لتثقيفية": 1300,
    "نتس": 1300,
    "بكم": 1299,
    "قمع": 1299,
    "مسمو": 1299,
    "يعلمو": 1297,
    "يحسن": 1297,
    "لقصبا": 1297,
    "سيصبح": 1297,
    "لضحك": 1296,
    "مقتنيا": 1296,
    "عطر": 1295,
    "تسبق": 1295,
    "محصلة": 1295,
    "للصين": 1295,
    "لعطر": 1295,
    "عميم": 1294,
    "بعينها": 1294,
    "لمكتبية": 1294,
    "يبيا": 1293,
    "يحسم": 1293,
    "مبنية": 1293,
    "محققة": 1293,
    "طلقته": 1292,
    "صنعت": 1292,
    "يضعو": 1291,
    "تبعه": 1291,
    "يبعث": 1290,
    "كبته": 1290,
    "نشط": 1290,
    "ستمتع": 1290,
    "شتعا": 1288,
    "يسلط": 1287,
    "لنسبية": 1287,
    "قبله": 1286,
    "لقطعة": 1286,
    "مثيل": 1284,
    "هيمو": 1284,
    "صلها": 1284,
    "تمكنا": 1284,
    "عقل": 1283,
    "بشما": 1282,
    "همتها": 1281,
    "ملكا": 1280,
    "فبد": 1280,
    "لشيطا": 1280,
    "لمضيف": 1279,
    "يحتمل": 1279,
    "لمصلين": 1278,
    "فيجب": 1278,
    "قفنا": 1277,
    "تجهت": 1277,
    "تصميمه": 1276,
    "لسقف": 1275,
    "خيبة": 1274,
    "لتقشف": 1274,
    "غفير": 1273,
    "بقطع": 1272,
    "قتصر": 1271,
    "ستسهم": 1269,
    "يسلم": 1269,
    "تسم": 1269,
    "محلل": 1269,
    "طم": 1268,
    "للشهر": 1268,
    "لمطلق": 1268,
    "لضيقة": 1267,
    "تحتفل": 1267,
    "بعز": 1267,
    "تتضا": 1266,
    "لخليفة": 1266,
    "تكتسب": 1266,
    "بتصو": 1265,
    "خلنا": 1265,
    "نحتر": 1264,
    "يتعلم": 1263,
    "لعة": 1263,
    "لملتز": 1262,
    "للصند": 1261,
    "عقلية": 1261,
    "فيلد": 1261,
    "فيلمه": 1261,
    "لتصعيد": 1260,
    "ستجد": 1259,
    "مسفر": 1259,
    "للشحن": 1258,
    "للبقا": 1257,
    "بهن": 1256,
    "متنز": 1256,
    "لتنبو": 1256,
    "فجو": 1255,
    "يتطو": 1255,
    "بقسم": 1255,
    "مسلسلا": 1254,
    "مهمتها": 1254,
    "لمسلح": 1252,
    "ضيه": 1251,
    "جمتها": 1251,
    "يثي": 1250,
    "تنظيمه": 1250,
    "بتمو": 1250,
    "بتخصيص": 1250,
    "بيير": 1250,
    "عبىا": 1249,
    "تمكنهم": 1249,
    "ضبطت": 1248,
    "صحيا": 1248,
    "مفعو": 1248,
    "لمنبثقة": 1247,
    "تسقط": 1247,
    "لمنظم": 1246,
    "مكنة": 1246,
    "حش": 1246,
    "غمر": 1246,
    "يكتشف": 1246,
    "لتحكيمية": 1245,
    "لحقبة": 1244,
    "لمستقر": 1244,
    "جعلته": 1243,
    "ىفي": 1243,
    "منظر": 1243,
    "شخبو": 1242,
    "يكفل": 1241,
    "بمتو": 1241,
    "للسنو": 1241,
    "لحسنة": 1239,
    "عقر": 1239,
    "فتقو": 1238,
    "قلنا": 1237,
    "لشهيد": 1236,
    "للمفا": 1236,
    "منىي": 1236,
    "نظمه": 1235,
    "تثقيفية": 1234,
    "يكتا": 1234,
    "حير": 1233,
    "سيسي": 1233,
    "ميسا": 1232,
    "تينج": 1232,
    "محط": 1231,
    "لمحفز": 1231,
    "ليبد": 1231,
    "مستقبله": 1230,
    "لحمير": 1230,
    "سلمي": 1230,
    "غمو": 1229,
    "بيكا": 1228,
    "لملحة": 1227,
    "بميد": 1227,
    "مجمعا": 1227,
    "فلقد": 1227,
    "لحها": 1226,
    "نيما": 1226,
    "سليجا": 1226,
    "ختلفت": 1224,
    "لجهل": 1224,
    "يحمله": 1223,
    "طبقة": 1223,
    "نخلة": 1223,
    "شجع": 1222,
    "لشق": 1222,
    "ينيز": 1222,
    "حيها": 1222,
    "تتلقى": 1222,
    "نهد": 1222,
    "لقلم": 1222,
    "لمختص": 1222,
    "تجميل": 1221,
    "طننا": 1221,
    "لحصيلة": 1221,
    "منتخبي": 1221,
    "لثلو": 1220,
    "معلمة": 1220,
    "لحنين": 1220,
    "سفه": 1220,
    "ليحقق": 1220,
    "عتي": 1220,
    "لغين": 1219,
    "لمثقف": 1219,
    "لمقيمة": 1218,
    "سيضم": 1218,
    "فينيا": 1218,
    "يمهم": 1217,
    "لبقر": 1216,
    "منت": 1215,
    "صبحي": 1215,
    "ليفني": 1215,
    "يكس": 1214,
    "تشكيلها": 1214,
    "نسخته": 1214,
    "لتعقيد": 1214,
    "تحلية": 1213,
    "نيقة": 1213,
    "يحبو": 1212,
    "تيكا": 1210,
    "لعطلا": 1210,
    "بسد": 1210,
    "لضعيف": 1210,
    "هيبة": 1209,
    "لنظير": 1207,
    "هيفا": 1207,
    "سيلتقي": 1207,
    "ميكية": 1206,
    "بغيا": 1206,
    "نتسا": 1205,
    "خليجيا": 1204,
    "مينية": 1204,
    "لمسة": 1204,
    "شمسة": 1204,
    "غها": 1202,
    "للمستشفى": 1202,
    "لثمينة": 1202,
    "فطر": 1202,
    "مشجعة": 1202,
    "يعنى": 1201,
    "شحنة": 1201,
    "عطو": 1200,
    "جفا": 1200,
    "هلنا": 1200,
    "لتعيين": 1200,
    "فينجر": 1200,
    "منتقد": 1199,
    "لعطلة": 1199,
    "متينة": 1198,
    "يكتسب": 1197,
    "قز": 1197,
    "فلل": 1197,
    "يطل": 1196,
    "خنين": 1196,
    "لعبث": 1196,
    "لحلي": 1196,
    "يستحقو": 1196,
    "بنين": 1196,
    "لقيد": 1195,
    "لتقلبا": 1194,
    "معتا": 1194,
    "تصلح": 1194,
    "لملل": 1193,
    "نثو": 1192,
    "سحق": 1192,
    "صلته": 1191,
    "يصعد": 1191,
    "لنصب": 1191,
    "طنيا": 1191,
    "مصغر": 1191,
    "ختتا": 1191,
    "يشن": 1190,
    "فسد": 1190,
    "تحة": 1190,
    "تسلل": 1190,
    "قلقه": 1190,
    "تجتمع": 1189,
    "ضعته": 1188,
    "حلتها": 1188,
    "مغير": 1188,
    "للبحر": 1188,
    "لمتنقل": 1188,
    "قتين": 1187,
    "تلفت": 1187,
    "لعضلا": 1187,
    "شحنا": 1185,
    "بحل": 1185,
    "لبسيط": 1185,
    "نقصا": 1185,
    "لنطق": 1184,
    "للضر": 1184,
    "بخ": 1183,
    "يمد": 1183,
    "لتحلي": 1183,
    "تيفيز": 1182,
    "لتفتيشية": 1182,
    "ينب": 1182,
    "جعو": 1181,
    "طنها": 1181,
    "شتد": 1180,
    "بهجو": 1180,
    "تصنيفها": 1179,
    "لميثا": 1179,
    "ليشمل": 1179,
    "ليهما": 1179,
    "صله": 1178,
    "شطة": 1178,
    "يلحق": 1178,
    "لفضي": 1177,
    "معنية": 1177,
    "يختص": 1177,
    "لتفقد": 1176,
    "لجمو": 1176,
    "ستىجا": 1176,
    "لتملك": 1176,
    "للفتيا": 1175,
    "خصم": 1175,
    "متمثلة": 1175,
    "بتشكيلة": 1174,
    "بجها": 1174,
    "مبلغا": 1174,
    "ثغر": 1174,
    "حشية": 1173,
    "ستحا": 1173,
    "ضجة": 1172,
    "تنظيمية": 1172,
    "يحكي": 1172,
    "بمنتهى": 1171,
    "منفصل": 1171,
    "للتبر": 1171,
    "تبهم": 1170,
    "تنسجم": 1170,
    "نشىت": 1169,
    "تنطبق": 1169,
    "تشغيلها": 1169,
    "شحه": 1169,
    "ىقو": 1168,
    "ليقين": 1168,
    "ليستر": 1167,
    "ميت": 1167,
    "تتضح": 1167,
    "لعبء": 1166,
    "لشعبا": 1166,
    "غش": 1166,
    "عملة": 1165,
    "لينو": 1165,
    "صين": 1165,
    "حكيم": 1164,
    "ملقة": 1164,
    "بنفيكا": 1164,
    "نصح": 1164,
    "نسير": 1163,
    "لمسبو": 1162,
    "ستخلا": 1162,
    "منبر": 1162,
    "طلبو": 1161,
    "نشيني": 1161,
    "لخطف": 1161,
    "ستنطلق": 1161,
    "تطمح": 1161,
    "مسلحي": 1160,
    "غت": 1160,
    "خضعت": 1160,
    "لملقا": 1159,
    "فضيحة": 1158,
    "عجب": 1158,
    "تشتهر": 1158,
    "نيسية": 1157,
    "نتيا": 1157,
    "لجنيه": 1157,
    "لصليب": 1156,
    "صفته": 1156,
    "ضمير": 1156,
    "تكبت": 1156,
    "لظن": 1155,
    "قتحمت": 1155,
    "قهو": 1155,
    "للنشا": 1155,
    "سهمه": 1155,
    "غسيل": 1154,
    "قبته": 1154,
    "ينجر": 1153,
    "تخلق": 1153,
    "نقف": 1152,
    "طلبه": 1152,
    "سمد": 1152,
    "طبيبا": 1152,
    "لمحسن": 1151,
    "تنس": 1150,
    "سلمى": 1150,
    "يحتفل": 1150,
    "بمفهو": 1149,
    "جليا": 1149,
    "قصفت": 1149,
    "قيب": 1149,
    "جعي": 1149,
    "نفي": 1149,
    "ينصب": 1148,
    "قيعها": 1148,
    "صكو": 1148,
    "ميتا": 1148,
    "منطقية": 1146,
    "يبق": 1146,
    "لطعن": 1146,
    "تضيع": 1144,
    "يختر": 1144,
    "تستغل": 1144,
    "ثبو": 1143,
    "لمخيما": 1142,
    "نيز": 1142,
    "يحفز": 1142,
    "كهو": 1142,
    "عجو": 1141,
    "فتي": 1141,
    "يخصص": 1140,
    "يكبر": 1140,
    "لستر": 1140,
    "لمنعقد": 1139,
    "مقصد": 1139,
    "لمنقو": 1138,
    "بكيفية": 1138,
    "جلسته": 1138,
    "لمغنية": 1137,
    "تخشى": 1137,
    "تحفز": 1137,
    "لحير": 1136,
    "جمر": 1136,
    "شيفر": 1136,
    "لنفق": 1136,
    "فسي": 1135,
    "لبن": 1134,
    "بشبكة": 1134,
    "لخضا": 1134,
    "ستىصا": 1134,
    "تمس": 1134,
    "بحي": 1134,
    "تسمع": 1133,
    "ظو": 1133,
    "نيلا": 1133,
    "صن": 1132,
    "مقيمين": 1132,
    "نتهم": 1132,
    "للمصر": 1132,
    "تبسيط": 1132,
    "سعيه": 1132,
    "بمستقبل": 1132,
    "لني": 1131,
    "للسينما": 1131,
    "يحظر": 1130,
    "لطيف": 1130,
    "نجمه": 1130,
    "ستطعنا": 1130,
    "تسلط": 1130,
    "تنتهجها": 1130,
    "يلد": 1129,
    "تكلف": 1129,
    "جنيها": 1129,
    "نسر": 1129,
    "نتنا": 1128,
    "لمنطقي": 1128,
    "نغمة": 1128,
    "لعينة": 1127,
    "تبه": 1127,
    "لعمد": 1127,
    "طلة": 1127,
    "ينته": 1126,
    "لمجمعا": 1126,
    "لعقبة": 1126,
    "تمكنه": 1125,
    "فقي": 1124,
    "لتيسير": 1124,
    "لتضحية": 1124,
    "فخم": 1124,
    "بجهد": 1123,
    "سنتيمتر": 1123,
    "تحكي": 1122,
    "بتفجير": 1122,
    "بخط": 1122,
    "للصيا": 1122,
    "لعنيفة": 1122,
    "هلو": 1121,
    "لملتقيا": 1120,
    "فستا": 1120,
    "تيز": 1120,
    "لغفلي": 1119,
    "لفيس": 1119,
    "نعة": 1119,
    "للصعو": 1119,
    "مسبق": 1118,
    "كثيف": 1118,
    "حجمه": 1117,
    "صلبة": 1117,
    "لمضبو": 1117,
    "يجه": 1116,
    "فيتو": 1116,
    "للبحو": 1116,
    "قلل": 1116,
    "لميليشيا": 1116,
    "بحقه": 1116,
    "تيفو": 1116,
    "لشحنا": 1116,
    "منتظم": 1115,
    "معتقد": 1115,
    "بثقا": 1114,
    "يعلق": 1114,
    "صته": 1114,
    "لفتى": 1113,
    "يكتمل": 1113,
    "نخو": 1112,
    "كتسبت": 1112,
    "سيلو": 1112,
    "تكبو": 1111,
    "ستصبح": 1111,
    "ضته": 1111,
    "قليا": 1111,
    "للثا": 1110,
    "بعضنا": 1110,
    "قلقا": 1110,
    "يلعبه": 1109,
    "عبيها": 1109,
    "لطلق": 1109,
    "لملقب": 1108,
    "قطعا": 1108,
    "لسبعينيا": 1107,
    "ىيليو": 1107,
    "كيكي": 1107,
    "لبه": 1107,
    "لتجسس": 1107,
    "ينجز": 1105,
    "لفطيم": 1105,
    "بخطى": 1105,
    "منتجعا": 1105,
    "ضىيلة": 1104,
    "لحهم": 1104,
    "فيجا": 1103,
    "لسمع": 1103,
    "يملا": 1102,
    "يمثله": 1102,
    "عملو": 1101,
    "يمتر": 1101,
    "تصميما": 1101,
    "لمطلب": 1100,
    "حلق": 1100,
    "تمثله": 1099,
    "كسجين": 1099,
    "عنيف": 1099,
    "بليغة": 1098,
    "لسي": 1098,
    "مطلعة": 1098,
    "جستي": 1098,
    "عنهما": 1098,
    "مستغلا": 1098,
    "تستضيفه": 1098,
    "يتلقو": 1098,
    "فمثلا": 1097,
    "بيها": 1097,
    "ىيسها": 1097,
    "نحين": 1096,
    "جنبيا": 1096,
    "لنفسها": 1096,
    "لمعهو": 1096,
    "علنتها": 1096,
    "مصطلح": 1096,
    "لليبيين": 1096,
    "تكلفته": 1095,
    "بتعر": 1094,
    "فظو": 1094,
    "حثت": 1094,
    "خفيف": 1094,
    "غلبهم": 1094,
    "لحجو": 1094,
    "ثقل": 1093,
    "تفه": 1093,
    "جههم": 1092,
    "يخفف": 1092,
    "لصفحا": 1091,
    "لجثة": 1091,
    "لنضا": 1091,
    "فينو": 1091,
    "يكسو": 1090,
    "يننا": 1090,
    "شحو": 1090,
    "بغا": 1090,
    "ليحر": 1089,
    "تخصيب": 1089,
    "تبها": 1089,
    "لمنتجع": 1088,
    "يجذ": 1088,
    "جىنا": 1088,
    "لمكثف": 1088,
    "لنضج": 1087,
    "جينا": 1087,
    "لمكفو": 1087,
    "يكسب": 1086,
    "مفقو": 1086,
    "كنيسة": 1086,
    "بصفو": 1085,
    "لمحكو": 1085,
    "مخطو": 1085,
    "للفىا": 1085,
    "نبيه": 1084,
    "نطمح": 1084,
    "لحصد": 1084,
    "ضعيفا": 1084,
    "منطق": 1083,
    "يحمي": 1083,
    "ضغطا": 1083,
    "منتجي": 1082,
    "متقنة": 1082,
    "لمقتنيا": 1081,
    "ضيقة": 1081,
    "سيتمكن": 1081,
    "لصخو": 1081,
    "نسيو": 1080,
    "لجهر": 1080,
    "حجما": 1080,
    "كتر": 1080,
    "يقتل": 1080,
    "ليمنيين": 1079,
    "قسما": 1079,
    "حفز": 1079,
    "نفخر": 1079,
    "يبشر": 1079,
    "صمو": 1078,
    "حج": 1078,
    "لمضيفة": 1078,
    "يصلح": 1078,
    "لتهمة": 1077,
    "يقتها": 1077,
    "تبطا": 1076,
    "لنجد": 1076,
    "لمخططا": 1076,
    "جعلني": 1076,
    "مصفو": 1076,
    "لعينين": 1076,
    "للتخفيف": 1075,
    "لتتا": 1075,
    "بسعة": 1075,
    "تفكيك": 1075,
    "يلح": 1074,
    "نشكر": 1074,
    "قميص": 1073,
    "سنعمل": 1073,
    "تحمي": 1073,
    "يسلند": 1073,
    "لنقض": 1073,
    "لجثث": 1073,
    "للنصر": 1073,
    "يتطر": 1073,
    "فنها": 1072,
    "تكثر": 1072,
    "للظفر": 1072,
    "ستمعت": 1071,
    "ثقتنا": 1071,
    "لنبطي": 1071,
    "بسيطا": 1071,
    "يليين": 1069,
    "مستا": 1069,
    "لمظلو": 1069,
    "فيليبي": 1069,
    "بلير": 1068,
    "منحو": 1068,
    "ميتشل": 1067,
    "مبهر": 1066,
    "جسيمة": 1066,
    "سىل": 1066,
    "لسنتين": 1065,
    "بعبا": 1065,
    "كتسب": 1065,
    "لعبه": 1065,
    "ضنة": 1064,
    "عظا": 1064,
    "لبيىا": 1064,
    "تسكن": 1064,
    "نست": 1064,
    "يفعلو": 1063,
    "نعكست": 1063,
    "للها": 1063,
    "لمحير": 1061,
    "نقلته": 1061,
    "للهند": 1061,
    "لتحق": 1061,
    "لعشق": 1060,
    "يسكن": 1060,
    "متذ": 1060,
    "تسلمه": 1060,
    "سيصل": 1060,
    "لتغر": 1060,
    "تعليمي": 1059,
    "سيتيح": 1059,
    "تلقيه": 1059,
    "فعته": 1059,
    "خضم": 1058,
    "نجله": 1058,
    "ميسو": 1058,
    "للسلطا": 1058,
    "لقبها": 1057,
    "للتغلب": 1057,
    "عير": 1057,
    "ينقذ": 1057,
    "تح": 1056,
    "يغلق": 1056,
    "للبشر": 1056,
    "يجبر": 1055,
    "خيتا": 1055,
    "للخسا": 1055,
    "علين": 1054,
    "يجيز": 1054,
    "فقتها": 1054,
    "نعقد": 1054,
    "تتمحو": 1054,
    "لضم": 1053,
    "مضر": 1053,
    "لمستقل": 1053,
    "جعها": 1053,
    "ىنة": 1052,
    "لطبقا": 1052,
    "لمعلما": 1052,
    "متفجر": 1052,
    "تحسنت": 1051,
    "لمحصلة": 1051,
    "عتهم": 1051,
    "بمحر": 1051,
    "مختصة": 1051,
    "تفليقة": 1051,
    "لفقه": 1050,
    "بيعت": 1050,
    "بكلفة": 1050,
    "تحملها": 1050,
    "لبينية": 1050,
    "ىو": 1050,
    "لمنظمين": 1049,
    "تتبا": 1049,
    "تفتيشية": 1049,
    "لقسا": 1048,
    "يفها": 1048,
    "نتد": 1047,
    "يحي": 1047,
    "لتكييف": 1047,
    "نفعل": 1046,
    "صمتها": 1046,
    "كيفن": 1046,
    "سجلهما": 1046,
    "لتحليق": 1045,
    "لفلك": 1045,
    "يهن": 1044,
    "للبنين": 1044,
    "لسخر": 1044,
    "حثيثة": 1044,
    "مقبر": 1043,
    "تليفز": 1043,
    "للضغط": 1043,
    "صخر": 1043,
    "هبيا": 1043,
    "ثقتهم": 1043,
    "للمتا": 1042,
    "قهر": 1042,
    "فتم": 1042,
    "خطى": 1042,
    "فضلت": 1041,
    "لشعلة": 1041,
    "تجه": 1040,
    "مطلب": 1040,
    "حتهم": 1040,
    "مجملها": 1039,
    "كمين": 1039,
    "لبعث": 1039,
    "متعب": 1039,
    "لسنيو": 1038,
    "بشتى": 1038,
    "تفتتح": 1038,
    "لتسلية": 1038,
    "جنتينية": 1038,
    "لحقيبة": 1037,
    "حملها": 1037,
    "لبستا": 1037,
    "بعي": 1036,
    "هبته": 1036,
    "يكلف": 1036,
    "لمسد": 1035,
    "تمتع": 1035,
    "حتين": 1035,
    "لغطا": 1035,
    "بقضية": 1034,
    "بله": 1034,
    "بلها": 1034,
    "لغيط": 1034,
    "لبطن": 1034,
    "سقطو": 1034,
    "كنة": 1034,
    "تضطر": 1034,
    "لفيتا": 1033,
    "لثبا": 1033,
    "لمنفى": 1032,
    "بجمع": 1031,
    "لعصبي": 1031,
    "محيي": 1031,
    "تصلت": 1031,
    "يهر": 1031,
    "تلقو": 1030,
    "كسة": 1029,
    "خطته": 1029,
    "بحصة": 1029,
    "لنسبي": 1029,
    "لبىر": 1028,
    "حقهم": 1028,
    "يعين": 1027,
    "يستمتع": 1027,
    "خضو": 1027,
    "بهز": 1027,
    "يبيه": 1027,
    "يقيمو": 1026,
    "ممتد": 1026,
    "مستحضر": 1025,
    "تطهير": 1025,
    "متصلة": 1025,
    "عبء": 1024,
    "مكشو": 1024,
    "ىلتي": 1024,
    "فضيلة": 1024,
    "مبينة": 1024,
    "لسمكية": 1023,
    "قبلة": 1022,
    "همته": 1022,
    "لتعهد": 1022,
    "لثلج": 1022,
    "حتشد": 1022,
    "لفخمة": 1021,
    "تنشا": 1021,
    "بينو": 1021,
    "لبكتير": 1020,
    "علمه": 1020,
    "مكتملة": 1020,
    "بحب": 1020,
    "نتل": 1020,
    "لخضو": 1019,
    "نيسي": 1019,
    "ستشها": 1019,
    "يحققو": 1019,
    "لمعلن": 1018,
    "خططا": 1018,
    "تخيل": 1018,
    "بقتها": 1018,
    "شقر": 1017,
    "للمس": 1017,
    "ليتمكن": 1017,
    "معلنة": 1017,
    "لبطلة": 1017,
    "لطها": 1017,
    "لصم": 1017,
    "ثهم": 1017,
    "لكثر": 1016,
    "حملتها": 1016,
    "غيز": 1015,
    "حثهم": 1015,
    "تخلف": 1015,
    "لتسبب": 1015,
    "عقبت": 1015,
    "لصة": 1015,
    "ستتا": 1014,
    "تنر": 1013,
    "تبعث": 1012,
    "لشلل": 1012,
    "تشجيعا": 1012,
    "تضخم": 1012,
    "تغلبت": 1011,
    "بكة": 1011,
    "بيىا": 1011,
    "خب": 1010,
    "مفتشي": 1010,
    "كسمبو": 1009,
    "ميسر": 1009,
    "مبير": 1008,
    "سيىا": 1008,
    "جىا": 1007,
    "يسفر": 1007,
    "طنب": 1007,
    "لليمو": 1007,
    "سيغيب": 1006,
    "صنف": 1006,
    "ضيتين": 1006,
    "جهين": 1006,
    "كتيبة": 1006,
    "يحصد": 1005,
    "مبتو": 1005,
    "بضما": 1004,
    "سنكو": 1004,
    "تتكا": 1004,
    "لمشمو": 1003,
    "ينتا": 1003,
    "شفيق": 1003,
    "سطه": 1003,
    "يطيا": 1002,
    "تصفية": 1002,
    "بظر": 1002,
    "فعلية": 1001,
    "لسمعية": 1001,
    "لمتبقي": 1001,
    "للجلسة": 1000,
    "للحكا": 1000,
    "متثا": 999,
    "نفطية": 999,
    "بتلا": 999,
    "سيح": 999,
    "لتحف": 999,
    "بنتي": 999,
    "لغيث": 999,
    "تجنبا": 998,
    "لتخا": 998,
    "لسعة": 997,
    "سعية": 997,
    "لمحفل": 997,
    "لهيا": 997,
    "شمية": 996,
    "سبير": 996,
    "يفعله": 995,
    "بلية": 995,
    "يكتفي": 995,
    "لملمو": 995,
    "لتقليص": 995,
    "للملتقى": 995,
    "نيتا": 995,
    "بحكو": 995,
    "منيو": 995,
    "عسا": 994,
    "محكو": 994,
    "لتبني": 994,
    "ختفت": 993,
    "لمسيل": 993,
    "يمنية": 993,
    "ستشكل": 993,
    "للمشتر": 993,
    "نبيا": 993,
    "لمحتجز": 992,
    "بصفتها": 992,
    "لقفا": 992,
    "يخبر": 991,
    "منسقة": 991,
    "يجيب": 991,
    "نسحب": 990,
    "معك": 990,
    "ظيفها": 990,
    "بتخفيض": 989,
    "محليين": 988,
    "لثمين": 988,
    "خلصت": 988,
    "لهجمة": 987,
    "لقميص": 987,
    "تكمل": 987,
    "مسجل": 987,
    "لبلغا": 987,
    "تتصا": 986,
    "تمثا": 986,
    "كش": 986,
    "فقلت": 985,
    "ينكر": 985,
    "بعمق": 985,
    "للهم": 985,
    "تتشا": 984,
    "كني": 984,
    "لحبل": 984,
    "تكد": 984,
    "مسببا": 984,
    "ببذ": 984,
    "كليز": 984,
    "بست": 984,
    "صطحا": 983,
    "جلف": 983,
    "لغفا": 983,
    "لصقا": 982,
    "لنحت": 982,
    "تبطت": 981,
    "متخصصا": 981,
    "نشيلو": 981,
    "فضة": 981,
    "لتعبىة": 981,
    "نسى": 980,
    "لفيصلي": 980,
    "جعد": 980,
    "سيجد": 980,
    "لمبتد": 979,
    "لضمير": 979,
    "لقلبية": 979,
    "شهيد": 978,
    "لمسببة": 978,
    "للفيلم": 978,
    "نعتز": 978,
    "بجمهو": 977,
    "صفية": 977,
    "طشقند": 976,
    "لمنظر": 976,
    "قشو": 976,
    "ثلثي": 976,
    "لمنتهي": 975,
    "ستفها": 974,
    "لحشد": 974,
    "تسليمه": 974,
    "لممو": 973,
    "ليقظة": 973,
    "ستنكر": 973,
    "يضعها": 973,
    "عليهن": 972,
    "لحشيش": 972,
    "لقبيلة": 972,
    "لبيتهم": 972,
    "نيق": 972,
    "نقلهم": 971,
    "لفلبينية": 971,
    "للكبا": 971,
    "لمه": 970,
    "تخسر": 970,
    "لمتشا": 970,
    "حليب": 969,
    "حصلنا": 969,
    "لنصح": 968,
    "لكسو": 968,
    "لسحو": 968,
    "ستنز": 968,
    "فنجا": 968,
    "كلمتها": 968,
    "تلميذ": 967,
    "يطلبو": 967,
    "للشخص": 967,
    "حشا": 966,
    "للضيو": 966,
    "لمنخفض": 966,
    "لبلجيكية": 965,
    "لمحليا": 965,
    "بطمو": 965,
    "قعهم": 964,
    "تتمنى": 964,
    "قفهم": 964,
    "ستعو": 963,
    "فمنذ": 963,
    "جنين": 963,
    "لمفتشين": 963,
    "تعليقه": 963,
    "ستشمل": 962,
    "لمستطيل": 962,
    "يتصو": 961,
    "تقطع": 961,
    "جيما": 960,
    "للتنسيق": 960,
    "لحسبا": 960,
    "ليتنا": 958,
    "لمطلة": 958,
    "يقفو": 957,
    "مثيلا": 957,
    "تلز": 956,
    "لتنتهي": 956,
    "معلقة": 956,
    "حينا": 956,
    "ملهم": 955,
    "ستصل": 955,
    "عبير": 955,
    "لمستحق": 955,
    "ستشعا": 955,
    "نسبت": 955,
    "بقت": 955,
    "حظنا": 955,
    "قبلت": 954,
    "للعقو": 954,
    "بعضهما": 954,
    "لمعتر": 953,
    "مينيا": 953,
    "لشيف": 953,
    "سسها": 953,
    "محله": 953,
    "شغب": 953,
    "صقة": 953,
    "سعها": 952,
    "ظيفته": 952,
    "مشغل": 952,
    "كنز": 952,
    "لقصصية": 951,
    "صتين": 951,
    "قمها": 951,
    "لمشير": 951,
    "تعليمهم": 951,
    "قلبية": 950,
    "تعلو": 950,
    "شتغا": 950,
    "لفسبو": 950,
    "يشي": 950,
    "لجبر": 950,
    "بطلنا": 950,
    "نيبا": 950,
    "لمتبر": 950,
    "شلل": 949,
    "يفصل": 948,
    "للصد": 948,
    "تقى": 948,
    "بض": 948,
    "منتجة": 947,
    "حن": 947,
    "يشيد": 947,
    "غيث": 947,
    "للتكا": 946,
    "سنين": 946,
    "لعصيمي": 945,
    "معجز": 945,
    "بسقو": 945,
    "طليعة": 945,
    "لقطن": 945,
    "ببطء": 944,
    "كثيفة": 943,
    "للحملة": 943,
    "لمسما": 943,
    "ليط": 943,
    "لتخو": 942,
    "صيني": 942,
    "يملكها": 942,
    "لتخلف": 941,
    "تنظيما": 941,
    "ختز": 941,
    "بقعة": 940,
    "جبي": 940,
    "تغني": 940,
    "تعيينه": 940,
    "بملعبه": 940,
    "طبيا": 940,
    "مكلفة": 939,
    "ليند": 939,
    "فعني": 938,
    "قبها": 938,
    "بقنا": 938,
    "مسعى": 938,
    "عضلا": 938,
    "بيتش": 938,
    "ميخا": 937,
    "تتذ": 937,
    "قشته": 937,
    "تصف": 937,
    "لمبنية": 936,
    "قلقها": 936,
    "لستينيا": 936,
    "لمعظم": 936,
    "لنقلة": 935,
    "يمس": 935,
    "جهتهم": 935,
    "كتملت": 934,
    "جهن": 934,
    "منكم": 933,
    "يلهم": 933,
    "حجب": 933,
    "ثقو": 933,
    "لمجتمعو": 933,
    "جتين": 933,
    "بثو": 932,
    "نحصر": 932,
    "لمجمعة": 932,
    "صحته": 932,
    "بمعنو": 932,
    "فسيكو": 931,
    "لسيلية": 931,
    "تحسم": 931,
    "سيعز": 931,
    "بحقهم": 930,
    "تفصيلا": 929,
    "لبكر": 929,
    "سعنا": 929,
    "عمين": 929,
    "للخطة": 929,
    "عيتهم": 929,
    "لصيغة": 928,
    "تصنف": 928,
    "عمى": 928,
    "جعلنا": 928,
    "لبنجا": 928,
    "بتنو": 928,
    "ليخر": 928,
    "يحملها": 928,
    "بنيت": 927,
    "ىعين": 927,
    "بتخر": 927,
    "جتهد": 927,
    "هلمند": 927,
    "يهز": 926,
    "خطبة": 926,
    "عطية": 926,
    "نحصل": 926,
    "بتشغيل": 926,
    "بجنا": 925,
    "لمنهجية": 925,
    "هتمت": 925,
    "سيى": 925,
    "قيس": 924,
    "للسير": 924,
    "سبين": 924,
    "يقطع": 924,
    "للتقر": 924,
    "حمته": 923,
    "بعينه": 923,
    "سنقو": 923,
    "لغت": 923,
    "ضلة": 923,
    "ىنين": 923,
    "يحققه": 923,
    "يضية": 922,
    "ضبة": 922,
    "للمنتد": 922,
    "ببلا": 922,
    "يحتضن": 921,
    "تصنيفه": 921,
    "شبيهة": 921,
    "جيب": 921,
    "قيعه": 921,
    "هيكسبير": 920,
    "ميلي": 920,
    "تمكنها": 920,
    "جلستها": 919,
    "للفلسطينيين": 919,
    "خبز": 919,
    "مفكر": 918,
    "غفا": 918,
    "لتعليقا": 918,
    "نتكا": 918,
    "لشنا": 918,
    "لمسبق": 918,
    "لتسلم": 918,
    "لبقعة": 917,
    "عطل": 917,
    "بنقا": 916,
    "بقذ": 916,
    "بقبو": 915,
    "لقطب": 915,
    "صيلا": 915,
    "لمسيحي": 915,
    "لفيلا": 915,
    "لمسمى": 915,
    "سق": 915,
    "علبة": 915,
    "للبن": 914,
    "لتنشيط": 914,
    "ينكا": 914,
    "جيفر": 914,
    "لظنحا": 914,
    "تلف": 914,
    "كلثو": 914,
    "غصا": 914,
    "فلي": 913,
    "ملء": 913,
    "لتسعينا": 913,
    "لتطعيم": 913,
    "عميل": 912,
    "تخلص": 912,
    "لمحققة": 912,
    "تستعر": 911,
    "لكلب": 911,
    "للقلق": 911,
    "بمعهد": 911,
    "ىفهم": 910,
    "يقلص": 910,
    "تينو": 910,
    "سيعلن": 910,
    "نشطته": 909,
    "لخطبا": 909,
    "للعنف": 909,
    "لسيى": 909,
    "نبض": 909,
    "مجنو": 908,
    "نسجة": 907,
    "يتبعها": 907,
    "جينيا": 907,
    "منظمو": 906,
    "معتو": 906,
    "لتسع": 906,
    "منتظر": 906,
    "نييستا": 905,
    "لمصفح": 904,
    "فستها": 904,
    "للعيش": 903,
    "ببو": 903,
    "تتلخص": 903,
    "شطر": 903,
    "كتيبا": 903,
    "ستنتا": 902,
    "يلين": 902,
    "يبيك": 902,
    "ستنفا": 901,
    "لسبعينا": 901,
    "صحفيين": 901,
    "يضيع": 901,
    "ثيل": 901,
    "يتسن": 901,
    "هيما": 900,
    "حفلة": 900,
    "حلى": 899,
    "تشكلت": 899,
    "لشيكا": 899,
    "عقيل": 899,
    "بتشجيع": 899,
    "فتى": 899,
    "ينتقد": 899,
    "لمقطع": 898,
    "للصليب": 898,
    "بسعا": 898,
    "قبت": 898,
    "ليبي": 898,
    "متة": 898,
    "بشفا": 898,
    "مق": 897,
    "قعين": 897,
    "متضا": 897,
    "سيسعى": 897,
    "كلفت": 896,
    "بيبي": 896,
    "يستثمر": 896,
    "قضو": 896,
    "كحا": 895,
    "يحه": 895,
    "يغني": 895,
    "كسبر": 895,
    "سحبت": 894,
    "بنيو": 894,
    "لكثيف": 894,
    "تفجر": 894,
    "سيتيا": 894,
    "ىلتها": 894,
    "فسنجا": 894,
    "لمقطو": 893,
    "يعشق": 893,
    "تشكيلا": 893,
    "ثمنت": 892,
    "تلقينا": 892,
    "للصحيفة": 892,
    "بكس": 891,
    "تغلبه": 891,
    "لجيز": 891,
    "تعب": 891,
    "تنبع": 891,
    "لمكسيكية": 891,
    "مخ": 890,
    "يجعلهم": 890,
    "لمسبقة": 890,
    "سخا": 889,
    "جيحية": 889,
    "لنشطا": 889,
    "جثما": 889,
    "لنمطية": 888,
    "نقلو": 888,
    "منظمي": 888,
    "للهلا": 888,
    "لشيخو": 888,
    "جيبو": 888,
    "خفق": 887,
    "تكبر": 887,
    "تحلق": 887,
    "لمسعو": 887,
    "بنفسي": 887,
    "بيعه": 887,
    "غليطة": 887,
    "كى": 886,
    "خيم": 886,
    "تلحق": 885,
    "بتجهيز": 885,
    "حفيد": 884,
    "ثمنها": 884,
    "لبس": 884,
    "بثبا": 884,
    "تقصير": 884,
    "لمستهلكة": 884,
    "عتقلو": 883,
    "تستر": 883,
    "نن": 883,
    "لقهر": 883,
    "تجعلها": 882,
    "لكنهما": 882,
    "نعما": 882,
    "شكله": 882,
    "تنفق": 882,
    "ستذ": 882,
    "للتغيير": 881,
    "سيجعل": 881,
    "تفصل": 881,
    "بيشا": 880,
    "قمه": 880,
    "جحت": 880,
    "فقين": 879,
    "ميتر": 879,
    "لفيا": 879,
    "يطلع": 879,
    "تستطع": 878,
    "لمنصا": 878,
    "للمستهلك": 878,
    "للعملية": 878,
    "قلته": 878,
    "تمتلكها": 878,
    "بمكتبه": 876,
    "محتا": 875,
    "تيد": 875,
    "بمتطلبا": 875,
    "نكهة": 874,
    "لكلفة": 874,
    "لكيني": 874,
    "طلس": 874,
    "صطيا": 874,
    "علمنا": 874,
    "لقتيل": 874,
    "يلسو": 874,
    "سينعكس": 874,
    "غطت": 873,
    "ختفى": 873,
    "هينة": 873,
    "تحققه": 872,
    "مختلفين": 872,
    "تبع": 872,
    "يتصر": 872,
    "ثبتو": 872,
    "بتغطية": 871,
    "سلين": 871,
    "جيمي": 870,
    "لمنفر": 870,
    "لفلبيني": 870,
    "شبو": 869,
    "نجلا": 869,
    "سلكي": 869,
    "شنه": 869,
    "كينج": 869,
    "لمحفظة": 868,
    "يجها": 868,
    "بتحسين": 867,
    "للتز": 867,
    "ستعلا": 866,
    "ضعفا": 866,
    "يطلقو": 866,
    "تعلمو": 866,
    "نمطية": 866,
    "كبح": 865,
    "كسفو": 865,
    "نشقا": 865,
    "تفتقد": 865,
    "عهما": 865,
    "لتكتيكي": 865,
    "بطلبا": 864,
    "تكتل": 864,
    "تتجلى": 863,
    "لمعجز": 863,
    "تفقا": 863,
    "لنجيفي": 863,
    "محللين": 863,
    "يكثر": 863,
    "تقييد": 862,
    "ثمين": 862,
    "مشتقا": 862,
    "قتطا": 862,
    "بحملة": 861,
    "ىهن": 861,
    "لفصحى": 861,
    "طفلها": 861,
    "لنجف": 861,
    "لمصطلحا": 860,
    "ىيسين": 860,
    "ستغا": 860,
    "للطن": 860,
    "عيب": 859,
    "عصير": 859,
    "لمتنبي": 859,
    "نشد": 859,
    "ثتها": 858,
    "بشعبية": 858,
    "لعنيف": 856,
    "بيلد": 856,
    "بيليه": 855,
    "لتجميلية": 855,
    "لتكهنا": 855,
    "لهيمنة": 855,
    "تسمو": 855,
    "عميقا": 855,
    "ملنا": 854,
    "يمنحه": 854,
    "لمصممين": 854,
    "لفقد": 854,
    "حجو": 854,
    "نتخب": 854,
    "تنضم": 853,
    "لضخ": 853,
    "بحسا": 853,
    "تكلفتها": 853,
    "تلتيك": 853,
    "حتد": 853,
    "يحققها": 853,
    "منقو": 853,
    "يقتي": 853,
    "لفستا": 853,
    "خشى": 852,
    "لمحبو": 852,
    "هيجو": 852,
    "بلت": 852,
    "هيمنة": 852,
    "تقييمها": 851,
    "يفتقر": 851,
    "ستجما": 851,
    "صح": 851,
    "كيلا": 851,
    "لجني": 851,
    "لمغلو": 851,
    "يعلو": 851,
    "جبو": 851,
    "حقية": 850,
    "لتقطت": 850,
    "ستيو": 850,
    "تتشكل": 849,
    "كف": 849,
    "للهد": 849,
    "تحليلا": 849,
    "لبخو": 849,
    "غهم": 849,
    "لشيعة": 849,
    "تنقسم": 848,
    "طفين": 848,
    "ظلم": 848,
    "ينفي": 848,
    "تمي": 848,
    "للتبا": 848,
    "تستعمل": 847,
    "حتقا": 847,
    "لجنين": 847,
    "حكمها": 847,
    "يصلو": 847,
    "لصفة": 845,
    "لكف": 845,
    "بلي": 845,
    "حشة": 845,
    "تقها": 845,
    "حبس": 844,
    "لمفعو": 844,
    "تستقر": 844,
    "لخما": 844,
    "سعه": 844,
    "لتحفظ": 844,
    "نلو": 844,
    "شهية": 843,
    "ضيهم": 843,
    "طفيفا": 843,
    "بفير": 843,
    "مغلق": 843,
    "لغى": 842,
    "كيبها": 842,
    "نيقو": 842,
    "نبنا": 842,
    "تفشي": 842,
    "لتشغيلي": 841,
    "مخلو": 841,
    "سمعنا": 841,
    "يتطلعو": 841,
    "مستبعد": 841,
    "خلفها": 840,
    "صيفه": 840,
    "للحيو": 839,
    "بيكها": 839,
    "سنحا": 839,
    "بعما": 839,
    "للنسخة": 838,
    "نيسيف": 838,
    "مطلق": 838,
    "لتحلية": 838,
    "ستعلن": 837,
    "علنه": 837,
    "لجمير": 837,
    "ليبقى": 837,
    "تمنحها": 837,
    "تغلق": 837,
    "نسيج": 837,
    "يقبلو": 837,
    "سكل": 836,
    "لشيبة": 836,
    "سسين": 836,
    "لفها": 835,
    "متعمد": 835,
    "ليحل": 835,
    "فتحا": 834,
    "للمضي": 834,
    "قطة": 834,
    "للفحص": 833,
    "لغسيل": 833,
    "لمقيد": 833,
    "بمهمة": 833,
    "يحتسب": 832,
    "لميو": 832,
    "نسمح": 832,
    "بمضا": 832,
    "تتفو": 832,
    "ضحيتها": 832,
    "فيني": 832,
    "ستنكا": 831,
    "لبنكية": 831,
    "لمسطحا": 830,
    "للصغا": 830,
    "قلها": 830,
    "لمجمد": 830,
    "شذ": 829,
    "يستها": 829,
    "بتقييم": 829,
    "تملا": 828,
    "يتشه": 828,
    "بكلما": 828,
    "لمعتقد": 828,
    "ثب": 828,
    "حكمه": 828,
    "عقلا": 828,
    "هيلتو": 827,
    "ينشط": 827,
    "لنظيف": 827,
    "لمجهز": 827,
    "فيته": 827,
    "طلقه": 827,
    "لمصلحته": 826,
    "صقا": 825,
    "قق": 825,
    "لمنظمو": 825,
    "لمعطا": 825,
    "للتقا": 824,
    "ظنا": 824,
    "يبني": 823,
    "مستحيل": 822,
    "نشيد": 822,
    "مستهلك": 822,
    "تخطت": 822,
    "بخمس": 822,
    "حسمت": 822,
    "جهي": 821,
    "سبعين": 821,
    "سجلتها": 821,
    "لقنبلة": 821,
    "لبسمة": 820,
    "يتصا": 820,
    "لسبعين": 820,
    "حفو": 820,
    "ستتر": 820,
    "لعجمي": 820,
    "لمخبر": 819,
    "بتصد": 819,
    "لتشيكية": 819,
    "يثق": 819,
    "معتقل": 818,
    "ينشد": 818,
    "حمى": 818,
    "مهيا": 818,
    "ضحو": 818,
    "نستو": 818,
    "حلمه": 818,
    "ملعبنا": 817,
    "لقسو": 817,
    "بشكو": 817,
    "شطا": 817,
    "سجنا": 817,
    "مثلي": 817,
    "طنيه": 816,
    "تخلت": 816,
    "فعلي": 816,
    "لفيتنا": 816,
    "يثر": 815,
    "قبلية": 815,
    "كمبا": 815,
    "تنعم": 815,
    "فلج": 815,
    "ميلة": 814,
    "بتجد": 814,
    "شىا": 814,
    "منطقي": 814,
    "يتكلم": 814,
    "يملكه": 814,
    "يظن": 814,
    "جعيا": 814,
    "مفصلا": 813,
    "ستيشن": 813,
    "نقبل": 813,
    "لعطل": 813,
    "لشن": 812,
    "جسمه": 812,
    "نفد": 812,
    "ستيكس": 812,
    "سيتضمن": 812,
    "شغف": 811,
    "لتشجير": 811,
    "تمكينهم": 811,
    "بلغو": 811,
    "لسقا": 811,
    "يعمد": 811,
    "ستفد": 811,
    "يغلب": 811,
    "جهما": 811,
    "تنتجها": 810,
    "قعتها": 810,
    "تسجيلا": 810,
    "يستقر": 810,
    "لينهي": 809,
    "بثما": 809,
    "بسمعة": 809,
    "تليكو": 809,
    "بمفا": 809,
    "تصنيفا": 809,
    "صقو": 809,
    "عنبر": 809,
    "تبقي": 808,
    "مضيق": 808,
    "للخطو": 808,
    "لميكر": 808,
    "جلي": 808,
    "بميز": 808,
    "لمنفعة": 807,
    "فحا": 806,
    "كنهم": 806,
    "نشى": 806,
    "ثمنا": 806,
    "تحطم": 806,
    "ينعم": 806,
    "سيعا": 806,
    "سجلو": 806,
    "نسد": 806,
    "نتحر": 806,
    "فيكو": 805,
    "فعلته": 805,
    "لمفتش": 805,
    "يمهد": 805,
    "تستهلك": 805,
    "قسطة": 805,
    "ليفيا": 804,
    "لبنت": 804,
    "لكنيست": 804,
    "محقق": 804,
    "للتعو": 804,
    "يضفي": 803,
    "عصفو": 803,
    "لخمر": 803,
    "نعتر": 803,
    "ليحصل": 803,
    "محة": 802,
    "تكبي": 802,
    "ليعر": 802,
    "لتجميع": 802,
    "سيمثل": 801,
    "لسجلا": 801,
    "ملحمة": 801,
    "غطية": 800,
    "بثها": 800,
    "مفصلة": 800,
    "محتجز": 799,
    "كمته": 799,
    "حمي": 799,
    "مجيد": 799,
    "ستطعت": 798,
    "تلت": 798,
    "ليسية": 798,
    "لمنطقتين": 798,
    "جتمعت": 798,
    "متطا": 798,
    "تختفي": 797,
    "كغير": 797,
    "لتكتل": 796,
    "كثفت": 796,
    "سيجا": 796,
    "للتفكير": 796,
    "حجة": 795,
    "ينتر": 795,
    "تخفض": 795,
    "حظه": 794,
    "تجبر": 794,
    "حسو": 794,
    "تجلس": 794,
    "هيلز": 793,
    "نتذ": 793,
    "قلبها": 793,
    "تضفي": 793,
    "يقصر": 793,
    "لعقلا": 792,
    "للظر": 792,
    "يحية": 792,
    "تنجز": 792,
    "فيتل": 792,
    "لمبهر": 792,
    "يمبلي": 792,
    "تشن": 792,
    "تصفح": 792,
    "لقبة": 792,
    "يتضا": 792,
    "فشيىا": 791,
    "لتخصصي": 791,
    "شخصيتها": 791,
    "يمتلكها": 791,
    "لقمصا": 791,
    "للظهو": 790,
    "لتطبيقي": 790,
    "مشغلي": 790,
    "طبقت": 790,
    "نثق": 790,
    "لليجا": 790,
    "يغو": 790,
    "لطليا": 789,
    "سيسمح": 789,
    "لمعتز": 789,
    "بكسر": 789,
    "ستتيح": 789,
    "جيين": 789,
    "ظفر": 789,
    "حتسب": 788,
    "لشيعية": 788,
    "مبيو": 788,
    "للمقيمين": 788,
    "سيقيين": 788,
    "نسحبت": 788,
    "لمحتسب": 788,
    "بلن": 787,
    "لمع": 787,
    "عجة": 787,
    "ملحق": 787,
    "سكني": 787,
    "لقلة": 787,
    "عينها": 786,
    "نكسا": 786,
    "قن": 786,
    "يمنحها": 786,
    "بمقتل": 786,
    "يعتد": 786,
    "مستقبلي": 786,
    "معبد": 785,
    "يجعلني": 785,
    "فتحو": 785,
    "بشن": 784,
    "نتيننتا": 784,
    "للسفن": 784,
    "لصما": 784,
    "بىة": 784,
    "للتجد": 784,
    "لليخو": 783,
    "مهمتنا": 783,
    "فسر": 783,
    "كيني": 783,
    "للمكتب": 783,
    "مقيد": 782,
    "مجتمعه": 782,
    "بمسير": 782,
    "شطب": 781,
    "بحسن": 781,
    "نقلتها": 781,
    "غتر": 781,
    "لعجا": 781,
    "نشيز": 781,
    "لمغتر": 781,
    "نبيلة": 781,
    "حفظها": 780,
    "تملكه": 780,
    "لمهتمة": 780,
    "صيين": 780,
    "لبنفسجي": 780,
    "للتطبيق": 780,
    "نفقت": 780,
    "للهر": 780,
    "جنبلا": 779,
    "لنعا": 779,
    "طلبها": 779,
    "للتحكيم": 779,
    "خلع": 779,
    "مليء": 778,
    "يخفي": 778,
    "خبة": 778,
    "تجز": 778,
    "صحتها": 778,
    "شعبيا": 778,
    "منيت": 778,
    "تكتشف": 777,
    "سنه": 777,
    "كنتيجة": 777,
    "لتكهن": 776,
    "تملكها": 776,
    "حبك": 776,
    "يبيع": 776,
    "يفز": 776,
    "للشفا": 776,
    "يعملا": 776,
    "تحققها": 775,
    "تحث": 775,
    "ثيقا": 775,
    "لكها": 775,
    "يحين": 775,
    "سكنت": 774,
    "حك": 774,
    "بتسو": 774,
    "لغيو": 773,
    "لعضلة": 773,
    "لمحسو": 773,
    "نصبو": 773,
    "تتبو": 773,
    "لمظلا": 773,
    "يسمو": 773,
    "لمهجر": 772,
    "بطء": 772,
    "لفز": 772,
    "شنير": 772,
    "ىيسه": 772,
    "لمجز": 771,
    "نييل": 771,
    "منعا": 771,
    "منطقتنا": 771,
    "بخما": 771,
    "ميمها": 771,
    "جيف": 770,
    "تقم": 770,
    "تنحصر": 770,
    "قبي": 770,
    "بتفعيل": 769,
    "لمتجر": 768,
    "ضعهم": 768,
    "عصيبة": 768,
    "حسنة": 768,
    "لمخلصة": 767,
    "شف": 767,
    "لخصخصة": 767,
    "تخصصية": 767,
    "تتحكم": 767,
    "تسلمها": 767,
    "ليشا": 766,
    "بلغه": 766,
    "خصبة": 766,
    "ينخفض": 766,
    "بشعا": 766,
    "لسليما": 765,
    "مكس": 765,
    "ليتقد": 764,
    "جمته": 764,
    "للمسة": 764,
    "لمستحقين": 763,
    "متجهة": 763,
    "لمشتقا": 763,
    "حصن": 762,
    "للطلب": 761,
    "لقطط": 761,
    "لحشو": 761,
    "لفضو": 761,
    "حلما": 761,
    "تعيق": 761,
    "حشو": 761,
    "ىذ": 760,
    "يخنا": 760,
    "لمحيطا": 760,
    "ليجد": 760,
    "لتفصيل": 760,
    "كثف": 759,
    "لمعتقل": 759,
    "قيتها": 759,
    "نسة": 759,
    "مستحق": 758,
    "قتحم": 758,
    "قصي": 758,
    "يتحلى": 758,
    "لتعصب": 757,
    "للمملكة": 757,
    "يىا": 757,
    "كشمير": 757,
    "بقطر": 757,
    "صيتها": 757,
    "بينيو": 756,
    "لهضمي": 756,
    "محيطها": 756,
    "خططه": 756,
    "لكينية": 756,
    "لمحسنين": 756,
    "عيته": 756,
    "محها": 755,
    "للخبر": 755,
    "مصفا": 755,
    "تجتا": 755,
    "قتله": 755,
    "نعتمد": 755,
    "شعل": 755,
    "عظمة": 755,
    "ىسة": 755,
    "مقطع": 755,
    "بيللو": 755,
    "فصلا": 754,
    "عكسية": 754,
    "للسكن": 754,
    "تيس": 754,
    "علني": 753,
    "شقيقة": 753,
    "لنصيحة": 752,
    "هينية": 752,
    "عبقر": 752,
    "تفقنا": 752,
    "بعمر": 752,
    "مجسم": 752,
    "لشحنة": 752,
    "قيقا": 751,
    "علنو": 751,
    "بمبنى": 751,
    "لمستحد": 751,
    "ثقتها": 751,
    "للمسلمين": 751,
    "عجلا": 751,
    "جيهها": 750,
    "يثلو": 750,
    "معلقا": 750,
    "لسبو": 749,
    "للقلب": 749,
    "لمعيشي": 749,
    "فست": 749,
    "لمفتا": 749,
    "يستلز": 748,
    "للتهد": 748,
    "صميم": 748,
    "مكملا": 748,
    "فيفا": 747,
    "ثقتي": 747,
    "جمي": 747,
    "لخشبة": 747,
    "لكثبا": 747,
    "لعمى": 747,
    "مبني": 747,
    "عتبة": 746,
    "يخطف": 746,
    "تجليا": 746,
    "بمبد": 746,
    "لحلفا": 746,
    "كخطو": 746,
    "بتذ": 745,
    "مينو": 745,
    "شينخو": 745,
    "محمل": 745,
    "ملح": 744,
    "جلست": 744,
    "لخلية": 744,
    "لتنظيما": 744,
    "مجسما": 744,
    "مقلد": 744,
    "تطمت": 744,
    "لخطبة": 744,
    "نسيس": 743,
    "يتجلى": 743,
    "جمعا": 743,
    "لبغد": 742,
    "كلتا": 742,
    "تحتمل": 742,
    "مختصر": 741,
    "تنهي": 741,
    "بنير": 741,
    "سيحضر": 741,
    "صفتها": 741,
    "تلمس": 741,
    "تتحسن": 740,
    "يتفر": 740,
    "كتفت": 740,
    "نفلا": 739,
    "لكز": 739,
    "ستتخذ": 739,
    "كقا": 739,
    "غتا": 739,
    "يتيين": 739,
    "مشبو": 739,
    "تنمي": 738,
    "لتصفيق": 738,
    "لمغنا": 737,
    "بحثه": 737,
    "كيبا": 737,
    "تعلمنا": 737,
    "ضخما": 736,
    "تخفف": 736,
    "لمعلقة": 736,
    "بفىة": 736,
    "نجبت": 736,
    "صما": 736,
    "منطلقا": 736,
    "نصير": 736,
    "يتحسن": 736,
    "شتكى": 735,
    "جمها": 735,
    "تصنيعها": 735,
    "مخبا": 735,
    "خلقت": 734,
    "تقييما": 734,
    "عنك": 734,
    "تستعيد": 734,
    "مشكو": 734,
    "لمسنا": 734,
    "ليجر": 734,
    "يمشي": 733,
    "مستعر": 733,
    "عشت": 733,
    "منحا": 733,
    "لمحفو": 733,
    "نفقة": 733,
    "بيتنا": 732,
    "تعقب": 732,
    "لصلح": 732,
    "ضطلا": 731,
    "ضن": 731,
    "مبشر": 731,
    "طس": 730,
    "كلين": 730,
    "بخطة": 730,
    "لتقسيم": 730,
    "للعلم": 730,
    "ختبر": 729,
    "يستعمل": 729,
    "لنقيض": 729,
    "مشتبه": 729,
    "تلقتها": 729,
    "لغته": 729,
    "علب": 729,
    "يحلو": 728,
    "سعينا": 728,
    "تضييق": 728,
    "تيجيتنا": 727,
    "بمعز": 727,
    "للمحيطا": 727,
    "حيمة": 727,
    "لنعما": 727,
    "لتنبيه": 727,
    "تقييمه": 726,
    "للطب": 726,
    "لميت": 726,
    "سلك": 726,
    "لمحتجو": 726,
    "تضعها": 725,
    "ينهم": 725,
    "صهر": 725,
    "منقطع": 725,
    "لهمو": 725,
    "فيجو": 725,
    "يقضو": 725,
    "تفك": 725,
    "لحظو": 725,
    "للشعو": 725,
    "لبحثي": 724,
    "لمتهمو": 724,
    "لمحة": 724,
    "مسلمة": 724,
    "قبضة": 724,
    "نيلسو": 724,
    "لتهيىة": 723,
    "ستنتهي": 723,
    "لكفيل": 723,
    "قنعة": 723,
    "ينبع": 723,
    "قصصية": 723,
    "ستضم": 722,
    "مقبل": 722,
    "قليميين": 722,
    "حنين": 721,
    "جك": 721,
    "تشغيله": 720,
    "ىبين": 720,
    "بنصف": 720,
    "للتحقق": 720,
    "منتهية": 719,
    "شنتها": 719,
    "خشبية": 719,
    "تحسب": 719,
    "لمهما": 719,
    "ممتع": 719,
    "عيتها": 719,
    "لتطلع": 719,
    "ظبى": 718,
    "بسة": 718,
    "سلط": 718,
    "محه": 718,
    "بستا": 718,
    "لمحتملين": 717,
    "بلند": 717,
    "تلقيت": 717,
    "لمعتصمين": 717,
    "لمسكو": 717,
    "نعيم": 716,
    "لمستحضر": 716,
    "ستنفذ": 716,
    "بمعلو": 716,
    "تنج": 716,
    "لعنبر": 715,
    "سمعته": 715,
    "لنخل": 715,
    "كتيب": 715,
    "يكه": 715,
    "نستفيد": 715,
    "لطحين": 715,
    "شيبا": 715,
    "يتخلى": 714,
    "حيثيا": 714,
    "طلقا": 714,
    "لعشب": 714,
    "لسمحة": 714,
    "لبطر": 714,
    "جيهية": 713,
    "لبصل": 713,
    "بنيتها": 713,
    "تعظيم": 713,
    "سيصد": 712,
    "سمعتها": 712,
    "بمنز": 712,
    "متخصصو": 711,
    "شقيقتها": 711,
    "تمكينها": 711,
    "تبعها": 711,
    "كينة": 711,
    "بيتيس": 711,
    "صيته": 710,
    "لليلية": 710,
    "تهز": 710,
    "كسين": 710,
    "جسيم": 709,
    "بتفو": 709,
    "شب": 709,
    "حقنا": 709,
    "تفصيلية": 709,
    "سفو": 708,
    "علنها": 708,
    "نغر": 708,
    "لمستشر": 708,
    "شقيقته": 707,
    "لنشو": 707,
    "بمغا": 707,
    "لبيتها": 707,
    "حبر": 707,
    "تجنيد": 706,
    "تقيد": 706,
    "نجبا": 706,
    "سيتنا": 706,
    "لعينية": 706,
    "يحتم": 705,
    "للفصل": 705,
    "ليفي": 705,
    "ضبطها": 705,
    "ستكملت": 704,
    "حمله": 704,
    "لشعبة": 704,
    "لخشو": 704,
    "جهتين": 704,
    "لقطة": 704,
    "عك": 704,
    "لحبر": 704,
    "يقم": 704,
    "لنشيد": 704,
    "ميتش": 703,
    "لمشبو": 703,
    "نتعر": 703,
    "تسعير": 703,
    "لمحققين": 703,
    "كهد": 703,
    "خلط": 703,
    "عينية": 702,
    "لفيسبو": 702,
    "شيحه": 702,
    "جعلهم": 702,
    "طبع": 702,
    "سيحقق": 701,
    "حفة": 701,
    "لتبقى": 701,
    "خلفت": 700,
    "تحلم": 700,
    "يخت": 700,
    "يجلب": 700,
    "منعه": 700,
    "تخلل": 700,
    "لحمض": 700,
    "مستقبلها": 699,
    "للسكر": 699,
    "نتين": 699,
    "عقله": 699,
    "لعتا": 699,
    "لتسليح": 699,
    "فيمكن": 699,
    "مسميا": 699,
    "ثنية": 699,
    "هطلت": 698,
    "للغبا": 698,
    "ضعي": 698,
    "تبنيها": 698,
    "جينيس": 698,
    "يبقي": 697,
    "لمستبعد": 697,
    "يضغط": 697,
    "ينك": 697,
    "مختصين": 697,
    "مبتد": 697,
    "لمصغر": 696,
    "قلصت": 696,
    "يخفض": 696,
    "تقتضي": 696,
    "لمسىو": 696,
    "لعقلي": 696,
    "فسيح": 696,
    "يعيشه": 695,
    "شفر": 695,
    "ثمينا": 695,
    "مكسبا": 695,
    "ليكتر": 695,
    "بطين": 695,
    "نطلب": 695,
    "مهز": 695,
    "تحليلها": 694,
    "تعصف": 694,
    "شحي": 694,
    "عينيها": 694,
    "يبث": 694,
    "بثت": 694,
    "ليتيم": 694,
    "مظفر": 694,
    "فظتي": 694,
    "لشهية": 693,
    "بخيا": 693,
    "نتصر": 692,
    "لفلكلو": 692,
    "ستكمل": 692,
    "قيته": 692,
    "مسىو": 692,
    "للتصفيا": 692,
    "لتسليط": 692,
    "مكسب": 691,
    "سيفا": 691,
    "ينشتا": 691,
    "صنعها": 691,
    "لفحل": 690,
    "لمكيا": 690,
    "كمصد": 690,
    "شينكو": 690,
    "مضيىة": 689,
    "حببت": 689,
    "سببها": 689,
    "حيبا": 689,
    "يمسك": 689,
    "صعة": 689,
    "سخو": 689,
    "منطقيا": 689,
    "بستة": 688,
    "يهمه": 688,
    "بضم": 688,
    "طقس": 688,
    "ستعز": 688,
    "للمتسا": 688,
    "تخفي": 688,
    "ليسد": 688,
    "تنهض": 688,
    "جعلتها": 687,
    "تثر": 687,
    "فلت": 687,
    "لتنحي": 687,
    "سميت": 686,
    "قسمين": 686,
    "لنعمة": 686,
    "لنفيس": 686,
    "خصمه": 686,
    "لفيلسو": 686,
    "حيتين": 686,
    "يكم": 685,
    "بهى": 685,
    "لتنشىة": 685,
    "كيلي": 685,
    "بثنا": 685,
    "خلهم": 685,
    "للمستفيد": 685,
    "كشن": 685,
    "نسبي": 685,
    "هيلها": 685,
    "ببيا": 684,
    "بتبا": 684,
    "فيضا": 684,
    "مغنية": 684,
    "بقلق": 684,
    "لمست": 684,
    "عظيما": 684,
    "ىقها": 683,
    "ملحقا": 683,
    "يتخطى": 683,
    "بيعة": 683,
    "حتمية": 683,
    "كمسا": 683,
    "ستظهر": 683,
    "لنبيل": 683,
    "تجلب": 682,
    "لتسمية": 682,
    "لمتجهة": 682,
    "بشغف": 682,
    "لطحا": 682,
    "للحيلو": 682,
    "للبيت": 682,
    "مستقبلهم": 682,
    "لمتحا": 681,
    "مغز": 681,
    "تسلق": 681,
    "خفي": 681,
    "ىء": 681,
    "لشيشة": 681,
    "لكتف": 681,
    "بمليا": 680,
    "تقهم": 680,
    "يستحو": 680,
    "سببه": 680,
    "لفك": 680,
    "لفجا": 680,
    "عسير": 680,
    "قفية": 680,
    "مغطا": 679,
    "سيت": 679,
    "بقصف": 679,
    "هنيا": 679,
    "مشية": 679,
    "جليلة": 679,
    "خيلة": 679,
    "حض": 678,
    "للعبا": 678,
    "لتتر": 678,
    "نصة": 678,
    "لصير": 678,
    "يضي": 678,
    "بتغلبه": 677,
    "تحفيظ": 677,
    "لخجل": 677,
    "بنما": 677,
    "تنتجه": 677,
    "مطبخ": 677,
    "تقلب": 677,
    "معتقلين": 676,
    "يهمنا": 676,
    "جىو": 676,
    "يليها": 676,
    "فلد": 676,
    "ميكو": 676,
    "يتحكم": 676,
    "ضلا": 675,
    "منيين": 675,
    "لصليبي": 675,
    "جلعا": 675,
    "تفضيل": 675,
    "ثنتا": 674,
    "مسلمين": 674,
    "جيله": 674,
    "تكهنا": 674,
    "متلك": 674,
    "كفو": 674,
    "لمصنعين": 674,
    "يتسلم": 674,
    "بتمر": 673,
    "بتقنيا": 673,
    "تيجيته": 673,
    "سجلنا": 673,
    "تفخر": 673,
    "للقضية": 673,
    "بتنمية": 673,
    "منجها": 673,
    "معينا": 673,
    "تفعله": 672,
    "لصبي": 672,
    "منحته": 672,
    "نهتم": 672,
    "متنع": 672,
    "لتسعير": 671,
    "تفقو": 670,
    "تلقيها": 670,
    "سيبحث": 670,
    "يخشو": 670,
    "ينيه": 669,
    "تكتفي": 669,
    "حفلت": 669,
    "ستنظم": 668,
    "لصقل": 668,
    "بلغته": 668,
    "جنس": 668,
    "نحتفل": 668,
    "فعلها": 668,
    "لتحسينا": 668,
    "نعيد": 668,
    "لتقينا": 668,
    "لعجلا": 667,
    "نسبية": 667,
    "ستهتا": 667,
    "لليمن": 667,
    "لحمى": 667,
    "ينسو": 667,
    "مفتي": 667,
    "ينيس": 667,
    "لتشكيك": 666,
    "للتعلم": 666,
    "بيكر": 666,
    "ففا": 666,
    "نخا": 665,
    "مصنعي": 665,
    "للنتا": 665,
    "يصير": 665,
    "تمنحه": 665,
    "بفحص": 665,
    "يتحملو": 664,
    "بخيبة": 664,
    "لمبني": 664,
    "للحما": 664,
    "فشله": 664,
    "لتقصير": 664,
    "كليفلا": 664,
    "مهتمة": 663,
    "ضطها": 663,
    "هتلر": 663,
    "شبر": 663,
    "لعجلة": 663,
    "تيكي": 663,
    "ضلو": 663,
    "هنو": 662,
    "كسد": 662,
    "لمغطا": 662,
    "طقين": 662,
    "خف": 662,
    "نجية": 662,
    "ليحتل": 662,
    "نخسر": 662,
    "لتسجل": 662,
    "لقبلي": 662,
    "لسطحية": 662,
    "نصيحة": 661,
    "لمهو": 661,
    "تحتلها": 661,
    "كمي": 660,
    "مكسيكو": 660,
    "يجتا": 660,
    "حكر": 660,
    "شقيقها": 660,
    "قبتها": 660,
    "لمشهر": 659,
    "لعيب": 659,
    "ميقا": 659,
    "بمسر": 659,
    "ىتي": 659,
    "لفلسفية": 659,
    "طبيبة": 658,
    "طعنا": 658,
    "يتيم": 658,
    "يستمع": 658,
    "مستحيلا": 658,
    "مهمتهم": 658,
    "نيتين": 658,
    "لمحصو": 658,
    "ملصقا": 658,
    "متضمنة": 658,
    "بحبس": 657,
    "نيكس": 657,
    "ينعقد": 657,
    "مضمر": 657,
    "لعيسا": 657,
    "هيج": 656,
    "جيلها": 656,
    "لمتعففة": 656,
    "صنقو": 656,
    "جيني": 656,
    "يعنيه": 655,
    "تكلم": 655,
    "قهما": 655,
    "تنم": 655,
    "ثن": 655,
    "لمتخذ": 655,
    "فعتها": 654,
    "لمشد": 654,
    "للفكر": 654,
    "خطي": 654,
    "قصته": 654,
    "خضير": 654,
    "حيت": 654,
    "بغز": 654,
    "كبت": 654,
    "سيتعين": 654,
    "للتصنيف": 654,
    "منتقا": 654,
    "يستضيفها": 653,
    "لشيشا": 653,
    "سلطت": 653,
    "تجمعو": 653,
    "لجيا": 653,
    "لتصنيفا": 653,
    "كسبت": 653,
    "ستطع": 652,
    "نتيجتها": 652,
    "حلقت": 652,
    "يبكو": 652,
    "حشي": 652,
    "بينية": 652,
    "تمحو": 652,
    "ضىيل": 652,
    "تعج": 652,
    "لتخصيص": 651,
    "تنته": 651,
    "بيىي": 651,
    "يبكي": 651,
    "مصنعا": 651,
    "لشيعي": 651,
    "عنيد": 651,
    "لمنحد": 651,
    "صع": 650,
    "نحب": 650,
    "يقفز": 650,
    "تخبر": 649,
    "لعنيد": 649,
    "لطبو": 649,
    "تجعلنا": 649,
    "مليحة": 649,
    "شيقة": 649,
    "مهني": 649,
    "لفلفل": 649,
    "كفيل": 648,
    "للطفو": 648,
    "لصينيو": 648,
    "لتنفسي": 648,
    "مينها": 647,
    "تهيا": 647,
    "شحت": 647,
    "يقبع": 647,
    "تصطد": 647,
    "يستين": 647,
    "تيجا": 647,
    "تنجم": 647,
    "سلسة": 647,
    "لمهز": 647,
    "ستيل": 647,
    "لحث": 647,
    "يخطى": 647,
    "ينفع": 646,
    "تسليح": 646,
    "يتبعه": 646,
    "مختر": 645,
    "لمخو": 645,
    "تقه": 645,
    "لمحقق": 645,
    "ستلعب": 645,
    "متخذ": 645,
    "ىحه": 645,
    "ملعقة": 645,
    "جيتكس": 645,
    "تستجيب": 644,
    "تبشر": 644,
    "يهتمو": 644,
    "لحقد": 644,
    "ستتضمن": 644,
    "تكتيكية": 644,
    "ميكي": 644,
    "صفهم": 644,
    "لتكتيك": 644,
    "لخمسينيا": 644,
    "مستحيلة": 644,
    "لبته": 644,
    "قصصا": 644,
    "للمغفو": 643,
    "للمتر": 643,
    "ستنشا": 643,
    "كمبو": 643,
    "مفضلة": 643,
    "طنطا": 643,
    "منعها": 643,
    "لتخد": 643,
    "تطبيقية": 643,
    "لمتبع": 642,
    "مقتد": 642,
    "تحطمت": 642,
    "تطلقها": 642,
    "مجتمعهم": 642,
    "قلما": 642,
    "بكسل": 641,
    "لحكما": 641,
    "تعيشه": 641,
    "لختم": 641,
    "للبطا": 641,
    "يتهما": 641,
    "بخطا": 641,
    "لجهتين": 641,
    "قضة": 641,
    "حفيت": 641,
    "حبهم": 641,
    "بسما": 640,
    "سيشل": 640,
    "تتها": 640,
    "محيسن": 640,
    "سحو": 640,
    "لمهنيين": 640,
    "سيعتمد": 640,
    "لمصطلح": 639,
    "سجلته": 639,
    "قمصا": 639,
    "تحفة": 638,
    "ىحته": 638,
    "لشقا": 638,
    "فنيين": 638,
    "حطا": 638,
    "تتخلى": 638,
    "لتثبيت": 638,
    "بنكا": 638,
    "للبعض": 637,
    "طلبيا": 637,
    "لتتمكن": 637,
    "ينتين": 637,
    "بمهر": 637,
    "يمثلها": 637,
    "خيبر": 636,
    "بجلسة": 636,
    "بصيا": 636,
    "طيل": 636,
    "ينشا": 636,
    "متفق": 636,
    "كمن": 636,
    "نستخد": 636,
    "شتها": 635,
    "للعيا": 635,
    "عصو": 635,
    "حقي": 635,
    "لتحكيمي": 635,
    "لمعلمة": 635,
    "فلسطينيو": 634,
    "يعكف": 634,
    "لسلما": 634,
    "للتحا": 634,
    "بسه": 634,
    "طعن": 634,
    "يهمني": 634,
    "لينز": 634,
    "لنصيب": 633,
    "يلغي": 633,
    "لشغف": 633,
    "هقا": 633,
    "لمقبر": 633,
    "يعثر": 633,
    "مبيق": 632,
    "بمظهر": 632,
    "للتعد": 632,
    "جبلية": 632,
    "لكنك": 632,
    "يتمسك": 632,
    "لجينية": 632,
    "نيسكو": 632,
    "لتحقيقها": 632,
    "فعلنا": 631,
    "سلي": 631,
    "لتمثيلية": 631,
    "لتمكن": 631,
    "للتنظيم": 631,
    "عظ": 631,
    "لسلب": 631,
    "لهجين": 631,
    "عيما": 631,
    "يفخر": 631,
    "للبنية": 630,
    "لفتية": 630,
    "سينطلق": 630,
    "لحيل": 630,
    "بشخصية": 630,
    "بعبو": 630,
    "فنه": 630,
    "تعين": 630,
    "عق": 630,
    "تسعت": 629,
    "للتلفز": 629,
    "لفيتو": 629,
    "نهجا": 629,
    "مستغر": 629,
    "ستهلت": 629,
    "بتبني": 629,
    "تشكيلية": 629,
    "لمستحقا": 629,
    "تشغيلية": 629,
    "فتعا": 628,
    "يتلقا": 628,
    "سسو": 628,
    "لتعثر": 628,
    "بيمنا": 628,
    "لمشغلة": 627,
    "تليتكو": 627,
    "للنفا": 627,
    "للفيفا": 627,
    "تكللت": 627,
    "ستس": 627,
    "يصبو": 627,
    "كلير": 627,
    "بطيىة": 627,
    "ستحصل": 627,
    "ينحصر": 627,
    "لجن": 626,
    "تبنا": 626,
    "تبتعد": 626,
    "سيتحد": 626,
    "شيه": 626,
    "ممي": 626,
    "نسل": 626,
    "يسلر": 626,
    "بسجن": 625,
    "فيليبس": 625,
    "للتحكم": 625,
    "يصبحو": 625,
    "لضجيج": 625,
    "يفه": 624,
    "لحتا": 624,
    "بتعو": 624,
    "لبصير": 624,
    "يكسر": 624,
    "نتعلم": 624,
    "نبلييه": 624,
    "معيين": 624,
    "بلقبها": 623,
    "لكتيبا": 623,
    "ستعجا": 623,
    "لجلب": 623,
    "حليف": 623,
    "يضه": 623,
    "لفتة": 622,
    "نقيب": 622,
    "سيفتح": 622,
    "مجنا": 622,
    "سلميا": 622,
    "يجز": 622,
    "تنشىة": 621,
    "علنته": 621,
    "بمعسكر": 621,
    "للمما": 621,
    "ببلو": 621,
    "عينت": 620,
    "لحن": 620,
    "تحفظا": 620,
    "نعيمة": 620,
    "نيتو": 620,
    "للحلف": 620,
    "لتحقت": 620,
    "تنفر": 620,
    "بمكر": 620,
    "سخت": 620,
    "فتنة": 620,
    "للمتمر": 619,
    "بصنعا": 619,
    "مصبا": 619,
    "شنو": 619,
    "تكييف": 619,
    "لسكينة": 619,
    "خى": 619,
    "يتغمد": 619,
    "لتسلح": 619,
    "بمنظو": 619,
    "تكبه": 619,
    "خطفت": 618,
    "بلسي": 618,
    "تيما": 618,
    "ظهير": 618,
    "غتها": 618,
    "حهما": 618,
    "لتحليلا": 617,
    "تينيز": 617,
    "يحيي": 617,
    "منحى": 617,
    "تفعيلها": 617,
    "خته": 617,
    "لبنفسجية": 616,
    "لممتعة": 616,
    "مكثفا": 616,
    "لقصد": 616,
    "ىله": 616,
    "سعف": 615,
    "يتبنى": 615,
    "طلبنا": 615,
    "لقين": 615,
    "عينهم": 615,
    "نشنجلا": 614,
    "يسيا": 614,
    "صبع": 614,
    "ضمه": 614,
    "منتهى": 614,
    "للخط": 614,
    "لمحببة": 614,
    "لخفا": 614,
    "فتيل": 614,
    "يخضعو": 614,
    "لهيىتين": 614,
    "تخليص": 614,
    "لمشغلين": 613,
    "مشجعا": 613,
    "لمخلصين": 613,
    "لمتضا": 613,
    "تهتز": 613,
    "تشجيعها": 612,
    "ستمد": 612,
    "بصلة": 612,
    "مبية": 612,
    "للهجر": 612,
    "يعجز": 612,
    "لبسيتين": 612,
    "يكتبو": 612,
    "سلفه": 611,
    "جهل": 611,
    "قفي": 611,
    "بحتة": 611,
    "يقيس": 611,
    "هبه": 611,
    "بيعي": 610,
    "لتغليف": 610,
    "ليلي": 610,
    "تحتها": 610,
    "مكتمل": 610,
    "لملحن": 610,
    "لمطير": 609,
    "نستمر": 609,
    "مقنعة": 609,
    "غضبه": 609,
    "جهتي": 609,
    "بعثا": 609,
    "فىتي": 609,
    "لخفية": 609,
    "مختص": 609,
    "يتبين": 608,
    "محلها": 608,
    "تمتلكه": 608,
    "حينه": 608,
    "لفقها": 608,
    "نجين": 608,
    "فيتم": 608,
    "كلت": 608,
    "شكك": 608,
    "جج": 607,
    "بصلا": 607,
    "مقسمة": 607,
    "نفهم": 607,
    "ينسا": 607,
    "تكسب": 607,
    "محيطه": 607,
    "لمتينة": 607,
    "لسمة": 607,
    "ينفق": 607,
    "كيتين": 607,
    "لتسمم": 607,
    "قبه": 607,
    "عمن": 607,
    "سيحل": 606,
    "بيشي": 606,
    "منفصلين": 606,
    "نضو": 606,
    "عجل": 605,
    "مشي": 605,
    "تعشق": 605,
    "شينا": 605,
    "كليو": 605,
    "لهلع": 605,
    "تيكية": 604,
    "بحثها": 604,
    "تحصين": 604,
    "ينم": 604,
    "تستمد": 604,
    "لمهجو": 604,
    "لتهما": 604,
    "لملحقة": 604,
    "للنيا": 604,
    "نصها": 604,
    "فتحة": 603,
    "هملو": 603,
    "لمحيطين": 603,
    "كينو": 603,
    "بتسيير": 603,
    "ممز": 603,
    "لمنضو": 603,
    "لبطء": 603,
    "لفخذ": 602,
    "حملو": 602,
    "مستحقة": 602,
    "بيىيا": 602,
    "كتهما": 602,
    "يضطلع": 602,
    "نعلن": 602,
    "صفحته": 602,
    "يتمر": 601,
    "يضحك": 601,
    "تتلق": 601,
    "مستمد": 601,
    "سيستفيد": 601,
    "للعبو": 601,
    "سح": 601,
    "لمىو": 600,
    "ستطلعت": 600,
    "فطو": 600,
    "لتجسيد": 600,
    "لجسيمة": 600,
    "لجلة": 599,
    "طقها": 599,
    "يسها": 599,
    "لهتا": 599,
    "حقن": 598,
    "لخمو": 598,
    "بكية": 598,
    "لخمير": 598,
    "مهير": 598,
    "جهتنا": 598,
    "ليتسنى": 598,
    "للفتة": 598,
    "لفتن": 598,
    "يلعبها": 597,
    "عمي": 597,
    "سطها": 597,
    "مجلا": 597,
    "لبستكي": 597,
    "ختها": 596,
    "نهب": 596,
    "لمستقلين": 596,
    "حلتي": 596,
    "مغبة": 595,
    "شنها": 595,
    "لجبو": 595,
    "لمقبا": 595,
    "لجبن": 595,
    "بتكليف": 595,
    "لمنحو": 595,
    "يفت": 595,
    "عس": 595,
    "يعقل": 594,
    "نعز": 594,
    "نسيت": 594,
    "ليعا": 593,
    "تثمينا": 593,
    "غلي": 593,
    "شبيه": 593,
    "تعليمه": 593,
    "لتلقا": 593,
    "بيتين": 593,
    "تسعد": 592,
    "نيفا": 592,
    "يسكو": 592,
    "سيمنح": 592,
    "قيمها": 592,
    "حتفه": 592,
    "منحنا": 592,
    "لفضيحة": 591,
    "يقتضي": 591,
    "تشجيعه": 591,
    "تقيمها": 591,
    "لجته": 591,
    "ليبا": 591,
    "لمستقيم": 591,
    "تخطو": 590,
    "نفيلد": 590,
    "ختي": 590,
    "ميلتها": 590,
    "سلينهو": 589,
    "ببعضها": 589,
    "صلح": 589,
    "لملصقا": 589,
    "للفقر": 589,
    "ميكر": 589,
    "يصنف": 589,
    "كتمل": 588,
    "منعطفا": 588,
    "نسج": 588,
    "لمجنو": 588,
    "لخمسية": 588,
    "لعله": 588,
    "يهبط": 588,
    "تشيد": 588,
    "لكد": 588,
    "فضهم": 588,
    "لمنكر": 588,
    "نتيل": 588,
    "لجينا": 587,
    "ليكر": 587,
    "لنقب": 586,
    "لمكسر": 586,
    "نيهم": 586,
    "مست": 586,
    "خشب": 586,
    "خبو": 586,
    "لظيت": 585,
    "تسببه": 585,
    "نستحق": 585,
    "ستتمكن": 585,
    "لمنتقل": 585,
    "نينج": 585,
    "ينسحب": 585,
    "لهة": 585,
    "عيننا": 585,
    "سيذ": 585,
    "نصبت": 585,
    "شغلت": 585,
    "لغيني": 584,
    "صحتهم": 584,
    "لتطهير": 584,
    "فكم": 584,
    "معيشة": 583,
    "عمنا": 583,
    "للجلو": 583,
    "للتنفيذ": 583,
    "نصه": 583,
    "تبنتها": 583,
    "بينهن": 583,
    "لبسطا": 582,
    "يسيء": 582,
    "قسى": 582,
    "لهبا": 582,
    "لثبو": 582,
    "للمبنى": 582,
    "ليكية": 582,
    "متنقلة": 582,
    "يتعلمو": 582,
    "لمغلق": 581,
    "للتمر": 581,
    "بضو": 581,
    "شتعلت": 581,
    "نخ": 581,
    "عنيفا": 581,
    "تيكو": 581,
    "تحتضنها": 581,
    "للجنو": 581,
    "مقتصر": 580,
    "محليو": 580,
    "لفظ": 580,
    "لتعمير": 579,
    "لمسن": 579,
    "بعنف": 579,
    "خليط": 579,
    "تيتا": 579,
    "جيلي": 578,
    "يمبلد": 578,
    "لمسلحو": 578,
    "للفة": 578,
    "للمعلمين": 578,
    "طلعو": 578,
    "لغتنا": 578,
    "سبية": 577,
    "لستينا": 577,
    "طبيعته": 577,
    "فقيه": 577,
    "لمشجع": 577,
    "يهي": 577,
    "لتلي": 577,
    "قلقة": 577,
    "لتطا": 577,
    "يفضي": 576,
    "بتقا": 576,
    "قك": 576,
    "قيمه": 576,
    "بيلي": 576,
    "لمتصل": 576,
    "متكي": 576,
    "نلتقي": 576,
    "لتقط": 576,
    "ىلها": 576,
    "معكم": 576,
    "خططنا": 576,
    "تنصيب": 575,
    "تخصيصها": 575,
    "قله": 575,
    "يمثلا": 575,
    "فمع": 575,
    "تشكيلته": 575,
    "لفصلية": 575,
    "تهمو": 574,
    "تنفي": 574,
    "مهجو": 574,
    "صيحا": 574,
    "ليحا": 574,
    "تيت": 574,
    "صليين": 574,
    "نسق": 574,
    "مشقة": 574,
    "ستقصا": 574,
    "لستو": 573,
    "بمنظمة": 573,
    "لفىر": 573,
    "مثبتة": 573,
    "ظلو": 573,
    "لتمثا": 573,
    "لطبيبة": 573,
    "بسببها": 573,
    "جعتها": 573,
    "سيسكو": 572,
    "محملا": 572,
    "ليتي": 572,
    "عمقا": 572,
    "لفيل": 572,
    "لطقو": 571,
    "مصفح": 571,
    "تحفل": 571,
    "لمعيني": 571,
    "ىيليا": 571,
    "لتحميل": 571,
    "قعته": 571,
    "للحضا": 571,
    "يقظة": 571,
    "لمسند": 571,
    "ستحقق": 571,
    "شقو": 570,
    "للصلا": 570,
    "قشها": 570,
    "ضحين": 570,
    "خطفو": 570,
    "تثمر": 570,
    "سحبها": 570,
    "قيه": 569,
    "لهيكلية": 569,
    "مخفضة": 569,
    "نقطع": 569,
    "كقو": 569,
    "بحكمة": 569,
    "تجتذ": 569,
    "لمحملة": 569,
    "لمصنفين": 569,
    "بينج": 569,
    "ستسلم": 569,
    "بحجر": 568,
    "يضعف": 568,
    "نخير": 568,
    "بقلب": 568,
    "ثته": 568,
    "يسلي": 568,
    "شملهم": 568,
    "لتكثيف": 568,
    "سيني": 568,
    "لطليعة": 568,
    "لمشغل": 568,
    "ثيم": 568,
    "للتغير": 568,
    "للشيو": 567,
    "تطير": 567,
    "تشكو": 567,
    "قلبك": 567,
    "يستهل": 567,
    "لعتيبي": 566,
    "شمة": 566,
    "خفر": 566,
    "جبنا": 566,
    "لمستعمر": 566,
    "فقنا": 566,
    "قنصل": 566,
    "ستمتعت": 566,
    "ستحضا": 566,
    "بتسهيل": 566,
    "منطا": 566,
    "نستر": 566,
    "يكتف": 565,
    "ىمها": 565,
    "غتنا": 565,
    "ليشكل": 565,
    "يتك": 565,
    "خمة": 565,
    "لمنصف": 565,
    "ستعيد": 564,
    "فظي": 564,
    "ليخت": 564,
    "لتصميما": 564,
    "لمكتسبة": 564,
    "حليمة": 564,
    "لتكفير": 564,
    "قطب": 564,
    "تبكي": 564,
    "تبطين": 564,
    "شجعت": 564,
    "غبتي": 564,
    "ستيقا": 564,
    "يتجو": 563,
    "فنر": 563,
    "مجلسي": 563,
    "للكتب": 563,
    "عطلا": 563,
    "تتطا": 563,
    "شنته": 563,
    "سينو": 562,
    "ستشفا": 562,
    "جنح": 562,
    "فعلو": 562,
    "لمعجبين": 562,
    "مثو": 562,
    "تضمين": 562,
    "يتبق": 561,
    "لسكي": 561,
    "حيق": 561,
    "يلينا": 561,
    "للجسم": 561,
    "لخبيثة": 561,
    "سيينا": 561,
    "ملكيتها": 561,
    "للمعهد": 561,
    "ببغد": 561,
    "قطعها": 560,
    "فيبد": 560,
    "يضعه": 560,
    "بثه": 560,
    "تمهد": 560,
    "شخو": 560,
    "خفة": 560,
    "لمسيطر": 559,
    "لقمم": 559,
    "بهجة": 559,
    "حبل": 559,
    "ضينا": 559,
    "يصح": 559,
    "للتشا": 559,
    "بتسر": 559,
    "محير": 559,
    "لغفو": 559,
    "فستكو": 559,
    "مىتي": 558,
    "لثعا": 558,
    "للتحضير": 558,
    "يتبنا": 558,
    "عسى": 558,
    "صفحتها": 558,
    "علها": 558,
    "ستفتح": 558,
    "مهجنا": 558,
    "معتقلا": 558,
    "تغطيتها": 557,
    "لفيو": 557,
    "تقتل": 557,
    "بقه": 557,
    "لتقيت": 556,
    "لكعبة": 556,
    "فيستر": 556,
    "لبليا": 556,
    "تتفر": 556,
    "محكم": 556,
    "للمتضر": 556,
    "سيحظى": 556,
    "لعنق": 556,
    "لتتحو": 556,
    "سنية": 555,
    "مسكو": 555,
    "سيظهر": 555,
    "للتجر": 555,
    "غمة": 555,
    "قيعا": 555,
    "هنت": 555,
    "غته": 555,
    "لتضحيا": 555,
    "فكلما": 555,
    "للتفو": 555,
    "خطية": 555,
    "يتكا": 555,
    "ليضع": 555,
    "سينتهي": 555,
    "حبطت": 554,
    "ينتز": 554,
    "يستكمل": 553,
    "تحتفي": 553,
    "تقصد": 553,
    "مسحو": 553,
    "سيفيك": 553,
    "تكسر": 553,
    "تعميمها": 552,
    "فهن": 552,
    "تنصح": 552,
    "بشعر": 552,
    "متقطعة": 552,
    "جيس": 552,
    "منتسبا": 551,
    "تسميته": 551,
    "للخلا": 551,
    "لمعبد": 551,
    "معضلة": 551,
    "ببقية": 551,
    "بضغط": 551,
    "قبلي": 551,
    "يخف": 551,
    "يستجيب": 551,
    "كييفو": 551,
    "حسمها": 551,
    "نيفل": 551,
    "ينحد": 550,
    "ىيو": 550,
    "لتبو": 550,
    "لتصحر": 550,
    "تحظر": 550,
    "جمعو": 550,
    "تفسر": 550,
    "شعيب": 550,
    "كتبا": 550,
    "يخطر": 550,
    "حطم": 550,
    "نقض": 549,
    "لتلميذ": 549,
    "لبسطي": 549,
    "يلر": 549,
    "يقلب": 549,
    "بيسا": 549,
    "لتصفية": 548,
    "غيبو": 548,
    "يضها": 548,
    "بهجمة": 548,
    "لعبته": 548,
    "تسيء": 548,
    "للتقليل": 547,
    "تفضي": 547,
    "تخلفه": 547,
    "مكبر": 547,
    "لنقي": 547,
    "لمجمل": 547,
    "يكيت": 547,
    "مكم": 547,
    "يسكنه": 547,
    "نح": 547,
    "فخلا": 547,
    "يغذ": 547,
    "بفقد": 547,
    "لمستطا": 547,
    "يخفى": 546,
    "مجبر": 546,
    "سعته": 546,
    "صبت": 546,
    "يشيا": 546,
    "بصمته": 546,
    "ضيحا": 546,
    "متهمة": 546,
    "جيك": 546,
    "حيلة": 546,
    "بنجو": 546,
    "بتكثيف": 546,
    "نصفها": 546,
    "لمسيح": 546,
    "ينجم": 546,
    "جيههم": 545,
    "حبنا": 545,
    "يسكنها": 545,
    "لحقن": 545,
    "منصبا": 544,
    "يستغلو": 544,
    "ليفها": 544,
    "تيلي": 544,
    "ظير": 544,
    "مصيد": 544,
    "لفذ": 544,
    "قتهما": 543,
    "لمبحو": 543,
    "لقبيل": 543,
    "سميين": 543,
    "للمبد": 543,
    "لتبت": 543,
    "كنها": 543,
    "بمجهو": 543,
    "مبعلي": 543,
    "مسعد": 542,
    "تحصيلها": 542,
    "شهيل": 542,
    "لعنب": 542,
    "بحت": 542,
    "طينة": 542,
    "بعلم": 542,
    "يحبها": 542,
    "مجي": 542,
    "يملر": 542,
    "لمتسللين": 542,
    "تجلى": 542,
    "ستحما": 541,
    "بثته": 541,
    "لعفا": 541,
    "سبقتها": 541,
    "لصيت": 541,
    "طيها": 541,
    "بسها": 541,
    "فهمه": 541,
    "كلب": 541,
    "تفصيلي": 541,
    "نضمو": 540,
    "تبعتها": 540,
    "لتسعين": 540,
    "تتخطى": 540,
    "سنجد": 540,
    "بمقو": 540,
    "لطلبيا": 540,
    "مستقلا": 539,
    "تحصد": 539,
    "للهبو": 539,
    "فهمها": 539,
    "للخلف": 539,
    "تعطى": 539,
    "لسكين": 539,
    "مغلو": 539,
    "لمسبب": 538,
    "ميلر": 538,
    "ضهما": 538,
    "لشمسي": 538,
    "لسل": 538,
    "لكتيب": 538,
    "فسخ": 538,
    "لبنيا": 538,
    "لمحلة": 538,
    "سمكة": 538,
    "نكشا": 538,
    "يعيق": 538,
    "يتخلف": 538,
    "بقصيد": 538,
    "يحظو": 537,
    "لتسيير": 537,
    "تقلد": 537,
    "لفلسفي": 537,
    "تتصف": 537,
    "للتلا": 536,
    "سستين": 536,
    "تمشي": 536,
    "بيجو": 536,
    "صنو": 536,
    "يلتفت": 536,
    "خها": 536,
    "يطلقها": 536,
    "لفيف": 536,
    "يسميه": 536,
    "بتسم": 536,
    "نينها": 536,
    "فلذ": 536,
    "تقني": 536,
    "يحز": 535,
    "لغفير": 535,
    "فف": 535,
    "يسخر": 535,
    "يجيس": 535,
    "يحتجز": 535,
    "جتهم": 535,
    "لصحفيو": 535,
    "لتنسيقية": 535,
    "لمستهلكو": 534,
    "يستينا": 534,
    "يختبر": 534,
    "ينهض": 534,
    "خفية": 534,
    "هتف": 534,
    "ليعلن": 533,
    "مكتبها": 533,
    "لعلني": 533,
    "بيكو": 533,
    "بتغير": 533,
    "لمقيمو": 533,
    "بمنتجا": 533,
    "بثمن": 533,
    "ستستخد": 533,
    "ىنها": 532,
    "فيىة": 532,
    "ميع": 532,
    "يستعين": 532,
    "نمتلك": 532,
    "تضحيا": 532,
    "سيشمل": 532,
    "يلتقيا": 532,
    "لسفلي": 532,
    "مكنت": 532,
    "عيهم": 531,
    "للنفع": 531,
    "خليفه": 531,
    "لثقل": 531,
    "ييا": 531,
    "عنتر": 531,
    "كينيد": 531,
    "لملتحقين": 531,
    "تنحي": 531,
    "لتطعيما": 531,
    "حكيمة": 531,
    "بحقها": 531,
    "لسكند": 531,
    "نحنا": 530,
    "هتك": 530,
    "لتخطي": 530,
    "يتبقى": 530,
    "يقطن": 530,
    "يستمد": 530,
    "بيج": 530,
    "شعم": 529,
    "ينذ": 529,
    "لطفلين": 529,
    "ضحك": 529,
    "ثينيا": 529,
    "يحلق": 529,
    "نعش": 529,
    "غبي": 528,
    "نستعد": 528,
    "تسببها": 528,
    "نعير": 528,
    "حتفظت": 528,
    "ليلعب": 528,
    "لكثيفة": 528,
    "لطه": 527,
    "طيه": 527,
    "بعيو": 527,
    "ىقه": 527,
    "يختفي": 527,
    "نتمنا": 527,
    "لمحبي": 527,
    "لقتها": 526,
    "بيليجر": 526,
    "بميا": 526,
    "بتكو": 526,
    "لمختر": 526,
    "شقين": 526,
    "هيكلية": 526,
    "سيء": 525,
    "ينقسم": 525,
    "طبت": 525,
    "لشيك": 525,
    "عقلي": 525,
    "كتسبها": 525,
    "لحيلو": 525,
    "يتشكل": 525,
    "قسط": 525,
    "قني": 525,
    "لطبق": 525,
    "بلبنا": 524,
    "تكثف": 524,
    "قيما": 524,
    "يقطنها": 524,
    "صنفت": 524,
    "عملتها": 524,
    "عطي": 524,
    "بمنصب": 524,
    "كنتم": 524,
    "مفتشو": 524,
    "لجين": 524,
    "لمسكر": 523,
    "لفصيح": 523,
    "منغو": 523,
    "سيها": 523,
    "هنه": 523,
    "نسن": 523,
    "قسمت": 523,
    "مصطلحا": 522,
    "لطعو": 522,
    "ميمه": 522,
    "تضعه": 522,
    "بلجر": 522,
    "لمنتقد": 521,
    "ستلها": 521,
    "للمبيعا": 521,
    "تضمنها": 521,
    "للفتا": 521,
    "لمختلطة": 521,
    "مغة": 521,
    "فتير": 521,
    "فتكو": 521,
    "يحث": 521,
    "نتير": 521,
    "لعيسى": 521,
    "لهجا": 521,
    "لحنجر": 521,
    "لهية": 521,
    "تخليد": 520,
    "مبيد": 520,
    "سمته": 520,
    "مسيطر": 520,
    "ثمنه": 520,
    "لمصنفا": 520,
    "ينين": 520,
    "غتة": 520,
    "بضبط": 520,
    "عبها": 520,
    "يكها": 520,
    "حبيبي": 520,
    "هينا": 519,
    "تفلح": 519,
    "غيد": 519,
    "مهمين": 519,
    "للهجن": 519,
    "تبلو": 519,
    "نيتي": 519,
    "بلقبه": 519,
    "لتقصي": 519,
    "للحن": 519,
    "مثلهم": 518,
    "يتلق": 518,
    "تقنين": 518,
    "يفهمو": 518,
    "نخطط": 518,
    "بحفل": 518,
    "لشير": 518,
    "قيتا": 518,
    "معضد": 518,
    "تجمعه": 518,
    "لسخية": 518,
    "لعقم": 518,
    "لمنتمين": 518,
    "كمت": 517,
    "شعلة": 517,
    "لخيط": 517,
    "مثقف": 517,
    "سلحتهم": 517,
    "سقة": 517,
    "ستستضيف": 517,
    "ستمنح": 517,
    "هبتها": 517,
    "منهجيا": 517,
    "تيبها": 517,
    "مصعب": 517,
    "نيجر": 517,
    "لشبه": 517,
    "لتحصين": 517,
    "نشيسكو": 516,
    "كمشر": 516,
    "تنقية": 516,
    "حبيبة": 516,
    "طنتها": 516,
    "محجو": 516,
    "لمطلك": 516,
    "عسل": 516,
    "لفضيلة": 516,
    "لمتجا": 516,
    "للثقة": 515,
    "للسعو": 515,
    "بسمة": 515,
    "ثنت": 515,
    "متنفسا": 515,
    "ىمه": 514,
    "بلجنة": 514,
    "يكت": 514,
    "ىش": 514,
    "خضنا": 514,
    "لنخب": 514,
    "تبت": 514,
    "ىجة": 513,
    "بجذ": 513,
    "لفقا": 513,
    "بيعا": 513,
    "لمجسما": 513,
    "سييد": 513,
    "لهنا": 513,
    "ليمة": 512,
    "بسلسلة": 512,
    "يفسد": 512,
    "ضف": 512,
    "فييتية": 512,
    "كنتا": 512,
    "كتسبو": 512,
    "لتقي": 512,
    "نشبت": 512,
    "فقهم": 512,
    "للتفتيش": 512,
    "فم": 512,
    "تنبا": 511,
    "لمستمد": 511,
    "يلقو": 511,
    "لمخلص": 511,
    "يلتقط": 511,
    "تختز": 511,
    "بحملا": 510,
    "متعهد": 510,
    "يشتهر": 510,
    "تسيبي": 510,
    "لمتهما": 510,
    "كتبو": 510,
    "عصفت": 510,
    "لتفصيلية": 509,
    "طيسي": 509,
    "لمعضلة": 509,
    "جمد": 509,
    "لبيلا": 509,
    "لمحتل": 508,
    "بفن": 508,
    "للمنز": 508,
    "منحتها": 508,
    "تمنيت": 508,
    "لجحيم": 508,
    "لمليحة": 508,
    "للنص": 508,
    "سيفو": 508,
    "حطب": 507,
    "تجعلهم": 507,
    "لثيا": 507,
    "لليكو": 507,
    "مجين": 507,
    "فمه": 507,
    "تتسلم": 507,
    "بجمعية": 507,
    "للمجا": 506,
    "مصل": 506,
    "مننا": 506,
    "نيلكا": 506,
    "سبقو": 506,
    "مفعمة": 506,
    "معلمي": 506,
    "لمتجو": 505,
    "لتهميش": 505,
    "تهيمن": 505,
    "لمصحف": 505,
    "بيكيه": 505,
    "نفسهن": 505,
    "بطت": 505,
    "مضو": 505,
    "قيبة": 505,
    "يلتحق": 504,
    "ضيفت": 504,
    "تخل": 504,
    "فيجد": 504,
    "همه": 504,
    "شكسبير": 504,
    "لشحا": 504,
    "سيتخذ": 504,
    "للص": 504,
    "عصب": 504,
    "هض": 503,
    "نبني": 503,
    "خضعو": 503,
    "كتل": 503,
    "للتشر": 503,
    "لبغا": 503,
    "مهتم": 502,
    "بعضو": 502,
    "متك": 502,
    "سسه": 502,
    "شته": 502,
    "لمحكمين": 502,
    "نتيس": 502,
    "صحم": 502,
    "يفشل": 502,
    "مجتمعها": 502,
    "نصيا": 501,
    "ضمها": 501,
    "كعضو": 501,
    "ىنه": 501,
    "مقنعا": 501,
    "بينيتيز": 501,
    "لمسلما": 501,
    "بنسلفا": 501,
    "تنكر": 501,
    "بحصد": 500,
    "مثلث": 500,
    "لبز": 500,
    "ليكمل": 500,
    "عث": 500,
    "مقنع": 500,
    "مستشهد": 500,
    "لنكو": 500,
    "تنقلا": 500,
    "للسيليكو": 500,
    "تحتسب": 500,
    "مغنا": 500,
    "قيصر": 500,
    "فتجد": 500,
    "خفيفا": 499,
    "طنيين": 499,
    "لفلكية": 499,
    "ىلو": 499,
    "تنبيه": 499,
    "عصبية": 498,
    "لمحنة": 498,
    "خلفهم": 498,
    "فقبل": 498,
    "مطلبا": 498,
    "يشفع": 498,
    "لمليىة": 498,
    "سيبلغ": 498,
    "طتها": 498,
    "ملقا": 498,
    "يصطد": 498,
    "فيش": 498,
    "مبتغا": 498,
    "ممية": 498,
    "شفيلي": 498,
    "فضيا": 498,
    "لنكبة": 498,
    "لسين": 498,
    "مبل": 497,
    "لحشا": 497,
    "لحسد": 497,
    "ضخا": 497,
    "ستغلت": 497,
    "غيب": 497,
    "بتحمل": 497,
    "ستسمح": 497,
    "للضيا": 496,
    "فعليه": 496,
    "مجية": 496,
    "ضب": 496,
    "ستنسا": 496,
    "جيجز": 495,
    "لكبح": 495,
    "بلغنا": 495,
    "لعجما": 495,
    "لمتضمنة": 495,
    "تمتة": 495,
    "تستبعد": 495,
    "تجلت": 495,
    "لتحقيقه": 494,
    "بطهم": 494,
    "تختر": 494,
    "صطفا": 494,
    "بسلطنة": 494,
    "لمطعو": 494,
    "لهيب": 494,
    "بتحليل": 494,
    "نضمن": 494,
    "تيف": 494,
    "سنت": 494,
    "ليصبحو": 494,
    "كبه": 494,
    "سبيلا": 494,
    "لمطبق": 494,
    "بعضهن": 494,
    "بيسير": 493,
    "تتجد": 493,
    "خلفيا": 493,
    "لمليشيا": 493,
    "لمستفا": 493,
    "كتلك": 493,
    "للشك": 492,
    "قلقهم": 492,
    "لغنى": 492,
    "بتسمت": 492,
    "حتضنت": 492,
    "لبنين": 492,
    "طقهم": 491,
    "لنسق": 491,
    "خفف": 491,
    "لقصيص": 491,
    "يميلو": 491,
    "قضي": 491,
    "لنفي": 491,
    "بعتهم": 491,
    "تشيك": 491,
    "غنت": 491,
    "بش": 491,
    "لشند": 491,
    "للقنا": 491,
    "فيتها": 491,
    "ليمتد": 491,
    "تهذ": 491,
    "لعبقر": 491,
    "طيف": 491,
    "بجعل": 491,
    "لهجة": 491,
    "لصها": 491,
    "يجيء": 490,
    "مهنته": 490,
    "يتجمع": 490,
    "نتجا": 490,
    "ستلم": 490,
    "للتصر": 490,
    "يبتسم": 490,
    "مغبر": 490,
    "لجليلة": 490,
    "منهجا": 490,
    "ممو": 489,
    "لتشخيصية": 489,
    "نشب": 489,
    "خطب": 489,
    "للمسجد": 489,
    "حيي": 489,
    "حيبية": 488,
    "سمتها": 488,
    "تطعيم": 488,
    "قبض": 488,
    "لبينا": 488,
    "لتحفيظ": 488,
    "مسلما": 488,
    "جحين": 487,
    "بصير": 487,
    "فيشر": 487,
    "بحظر": 487,
    "بكمية": 487,
    "مجتمعي": 487,
    "تطم": 487,
    "ليميني": 487,
    "سيطا": 487,
    "تعم": 487,
    "مقتنع": 487,
    "لسفلى": 487,
    "لمنتمي": 486,
    "قتحمو": 486,
    "جمعتهما": 486,
    "ملته": 486,
    "لمعلق": 486,
    "ملغو": 486,
    "فيسنتي": 486,
    "فهة": 485,
    "للمتهم": 485,
    "بطنا": 485,
    "لتجميد": 485,
    "عتلى": 485,
    "ليتش": 485,
    "للخليج": 485,
    "ضيحية": 485,
    "يفيس": 485,
    "سيغا": 485,
    "لمظلة": 484,
    "نغما": 484,
    "تخلي": 484,
    "لقعقا": 484,
    "مستفيضة": 484,
    "سبتين": 484,
    "متع": 484,
    "نبقى": 484,
    "تقيمه": 484,
    "شكت": 484,
    "يتسر": 484,
    "فتتحه": 483,
    "لقصصي": 483,
    "للقسم": 483,
    "بكلا": 483,
    "لمتما": 483,
    "سيحر": 483,
    "للقذ": 483,
    "لعشبية": 483,
    "تقسيمها": 483,
    "تسييل": 483,
    "سعتها": 483,
    "لهشة": 483,
    "ستحقت": 483,
    "لكنز": 483,
    "بسير": 482,
    "ظفيه": 482,
    "لثمر": 482,
    "ليكم": 482,
    "لنهي": 482,
    "بمنتخب": 482,
    "ننجح": 482,
    "طفلين": 482,
    "للمعد": 482,
    "سيستمز": 482,
    "سكين": 481,
    "بسلو": 481,
    "نجعل": 481,
    "يعملن": 481,
    "لتقيا": 481,
    "صفي": 481,
    "عشقه": 481,
    "منجو": 480,
    "حفيظة": 480,
    "غلت": 480,
    "خفت": 480,
    "صطحب": 480,
    "للعطا": 480,
    "فنجد": 480,
    "تنبض": 480,
    "تشيز": 479,
    "شلي": 479,
    "لعم": 479,
    "نشغل": 479,
    "لفيش": 479,
    "يخهم": 479,
    "يحتفي": 479,
    "نشيا": 479,
    "بتقليص": 479,
    "فيتز": 479,
    "لحليا": 479,
    "لتقييس": 478,
    "عشنا": 478,
    "طلبتها": 478,
    "يغفل": 478,
    "لغيت": 477,
    "لمنتظمة": 477,
    "لمستكي": 477,
    "ضفت": 477,
    "تتطر": 477,
    "يتمحو": 477,
    "نشطتهم": 477,
    "سيضع": 476,
    "مخيبة": 476,
    "هنى": 476,
    "ستشعر": 476,
    "ينقص": 476,
    "بتفتيش": 476,
    "مطعما": 476,
    "كسية": 475,
    "ضفى": 475,
    "للنجم": 475,
    "لبلقا": 475,
    "للجيل": 475,
    "بيتو": 475,
    "ببنك": 475,
    "يعطيه": 475,
    "عيلية": 475,
    "تتجسد": 474,
    "لعسا": 474,
    "شتي": 474,
    "سعهم": 474,
    "للضو": 474,
    "غضبا": 474,
    "ينكو": 474,
    "قلد": 474,
    "لتضييق": 474,
    "نفقد": 474,
    "شلبي": 474,
    "شيمو": 474,
    "لمتحققة": 474,
    "يتخلص": 474,
    "كليهما": 474,
    "قعيا": 474,
    "يفصح": 473,
    "نشير": 473,
    "ينيت": 473,
    "لتعيينا": 473,
    "معلمين": 473,
    "هف": 473,
    "ستفر": 473,
    "ثقيلا": 473,
    "سنلعب": 473,
    "تتبد": 473,
    "حصته": 473,
    "للقطة": 472,
    "ضبطه": 472,
    "للحلو": 472,
    "مطمىنة": 472,
    "بظهو": 472,
    "نتخذ": 472,
    "عقبه": 472,
    "شقيقا": 471,
    "كيفين": 471,
    "ستجعل": 471,
    "لمغذ": 471,
    "كتشفو": 471,
    "ستنتج": 471,
    "بعثت": 471,
    "هجا": 471,
    "قيمنا": 471,
    "يطمىن": 471,
    "تنشد": 471,
    "لشميلي": 471,
    "نيشن": 470,
    "ستنبا": 470,
    "سجينا": 470,
    "تعقبها": 470,
    "يتقبل": 470,
    "لمتها": 470,
    "نعيشه": 470,
    "خمسما": 470,
    "فحتى": 470,
    "قتتا": 470,
    "بعضه": 470,
    "جيج": 469,
    "منعهم": 469,
    "لغجر": 469,
    "سيتعا": 469,
    "لسخي": 469,
    "معمقة": 469,
    "تسحب": 469,
    "يلمس": 469,
    "عطيت": 469,
    "خيط": 469,
    "تحليلية": 469,
    "منكو": 469,
    "ستقل": 469,
    "كنمو": 469,
    "بتجميد": 469,
    "نطر": 469,
    "ضجيج": 468,
    "جمعته": 468,
    "ليتهم": 468,
    "نكتشف": 468,
    "بتصا": 468,
    "سيعطي": 468,
    "خلقه": 468,
    "يقك": 468,
    "سبت": 467,
    "ستتنا": 467,
    "لتلف": 467,
    "لتسجيلا": 467,
    "شبكتها": 467,
    "ينخر": 467,
    "لغنو": 467,
    "نيج": 467,
    "جهك": 466,
    "مقتطفا": 466,
    "يحسد": 466,
    "لعصي": 466,
    "خطت": 466,
    "بتحسن": 466,
    "ستجمع": 466,
    "ملجا": 466,
    "خيخو": 466,
    "شمسية": 466,
    "كمها": 466,
    "محنة": 466,
    "بهبو": 465,
    "فيقا": 465,
    "للخطا": 465,
    "تيير": 465,
    "بتشد": 465,
    "صلتها": 465,
    "لحثيث": 465,
    "هجليج": 465,
    "سعيهم": 465,
    "يقهما": 465,
    "لتضيع": 465,
    "تضى": 465,
    "بتعليما": 465,
    "يمت": 464,
    "معمو": 464,
    "مطية": 464,
    "لبشا": 464,
    "ليعز": 464,
    "لنجما": 464,
    "بفيلم": 464,
    "لتظهر": 464,
    "ىتين": 464,
    "عبق": 464,
    "هيت": 464,
    "لحجة": 464,
    "مقيما": 464,
    "تحصى": 464,
    "يشكلا": 464,
    "لتحليلية": 463,
    "تعطلت": 463,
    "تقصر": 463,
    "سيبو": 463,
    "سكنا": 463,
    "ضمنت": 463,
    "لمضغو": 463,
    "لقص": 463,
    "تضغط": 463,
    "طغت": 463,
    "لقها": 462,
    "مصنعة": 462,
    "قسر": 462,
    "جبهم": 462,
    "سيلفيو": 462,
    "بجلا": 462,
    "سكير": 462,
    "لتحتل": 462,
    "ليمو": 462,
    "سمبد": 462,
    "نتهز": 462,
    "كج": 462,
    "يتبعو": 461,
    "مقتله": 461,
    "فكثير": 461,
    "ستسعى": 461,
    "قتبا": 461,
    "لخنبشي": 461,
    "يتنقل": 461,
    "نقش": 461,
    "قضيته": 461,
    "عشير": 460,
    "تحسينا": 460,
    "تضعف": 460,
    "منسجمة": 460,
    "يتمنا": 460,
    "ليفه": 460,
    "تعجز": 460,
    "كيها": 460,
    "لينش": 460,
    "حسنين": 460,
    "ليكا": 460,
    "للمحتا": 460,
    "هبنا": 460,
    "مفضلا": 460,
    "لمخيلة": 460,
    "ينتبه": 460,
    "لسمكة": 459,
    "سبي": 459,
    "بتعليم": 459,
    "يعتا": 459,
    "عيبا": 459,
    "جعلتني": 459,
    "يستحقها": 459,
    "مكسو": 459,
    "سمنتية": 458,
    "ظميا": 458,
    "نتينو": 458,
    "للشقق": 458,
    "تضيء": 458,
    "منفتحة": 458,
    "لمسيلة": 458,
    "جلهم": 458,
    "تمنت": 458,
    "نفع": 458,
    "نسيم": 458,
    "لشعير": 457,
    "يجتهد": 457,
    "سله": 457,
    "لقسر": 457,
    "بختا": 457,
    "غلة": 457,
    "يتعذ": 457,
    "لفكا": 456,
    "لشيفو": 456,
    "تتصر": 456,
    "جنها": 456,
    "ستخفا": 456,
    "شخصيتي": 456,
    "يلقيها": 456,
    "فسيتم": 456,
    "نضج": 456,
    "فلك": 456,
    "مينه": 456,
    "بتعليق": 456,
    "صيغ": 456,
    "لسلعية": 456,
    "تتبعه": 456,
    "لسيجا": 456,
    "بيىته": 455,
    "للغز": 455,
    "تهمه": 455,
    "تيبه": 455,
    "تمثلها": 455,
    "لمطل": 455,
    "بسمو": 455,
    "لظبي": 455,
    "تتضمنها": 455,
    "قتك": 455,
    "عقليا": 455,
    "تهب": 455,
    "تتمر": 454,
    "يتحا": 454,
    "تفتر": 454,
    "كمتهم": 454,
    "بلعيد": 454,
    "تشكيله": 454,
    "بقيم": 454,
    "يشكر": 454,
    "يشق": 454,
    "بهجت": 454,
    "غط": 454,
    "محتجين": 454,
    "للخيا": 454,
    "جتثا": 454,
    "لعهو": 454,
    "شعبيته": 454,
    "سبيس": 453,
    "يتحملها": 453,
    "لمت": 453,
    "لشخو": 453,
    "لمستقيل": 453,
    "لمفتي": 453,
    "بلسا": 453,
    "متعثر": 453,
    "لضنحا": 453,
    "تتعلم": 453,
    "منعو": 453,
    "بثر": 453,
    "لعلها": 453,
    "تقلصت": 452,
    "تهبط": 452,
    "يفيز": 452,
    "لهضم": 452,
    "يتضمنها": 452,
    "خطيب": 452,
    "جيهه": 452,
    "جنسيته": 452,
    "فصيلة": 452,
    "تشين": 452,
    "شيل": 452,
    "خفقت": 452,
    "متسو": 452,
    "للقصف": 452,
    "تجف": 451,
    "بمذ": 451,
    "للبعثة": 451,
    "لعفيفي": 451,
    "غيو": 451,
    "سجين": 451,
    "لتك": 451,
    "تجيد": 451,
    "علمها": 451,
    "لكبو": 451,
    "ميته": 451,
    "عجيبة": 451,
    "لمشتغلين": 451,
    "فيله": 451,
    "نتفق": 450,
    "تعلمها": 450,
    "ينجو": 450,
    "صيفة": 450,
    "فخمة": 450,
    "لقنص": 450,
    "بهجما": 450,
    "نعطي": 450,
    "بتلقي": 450,
    "بيتز": 450,
    "لطبعة": 450,
    "نيللي": 450,
    "سيخضع": 449,
    "للطبا": 449,
    "يلقا": 449,
    "ليتحو": 449,
    "يتشي": 449,
    "كبسو": 449,
    "سيفر": 449,
    "خللا": 449,
    "تشجيعية": 449,
    "لمسحو": 449,
    "تصير": 449,
    "تبخر": 449,
    "تقصي": 449,
    "بتمد": 448,
    "لمنبر": 448,
    "كبتين": 448,
    "لكير": 448,
    "لتكتلا": 448,
    "ستم": 448,
    "يمنحنا": 448,
    "تنظيميا": 448,
    "تنفس": 447,
    "كسبها": 447,
    "للحفل": 447,
    "للبضا": 447,
    "لتخليص": 447,
    "يقسم": 447,
    "منجم": 447,
    "مصممو": 447,
    "للتقييم": 447,
    "لكشفية": 447,
    "غبت": 447,
    "نجمت": 447,
    "كلينيك": 447,
    "تمسكه": 447,
    "لبليغة": 446,
    "خصخصة": 446,
    "لتلقيح": 446,
    "يمبي": 446,
    "لمشجعة": 446,
    "لشخصين": 446,
    "بيطر": 446,
    "مكملة": 446,
    "يعقب": 446,
    "بحفظ": 446,
    "لميسر": 446,
    "لجت": 445,
    "ستمثل": 445,
    "ينيين": 445,
    "مصلحته": 445,
    "فشلو": 445,
    "بحثي": 445,
    "يبيو": 445,
    "مسما": 445,
    "فكما": 445,
    "لمبيك": 445,
    "تسعين": 444,
    "يجلسو": 444,
    "ظلما": 444,
    "حكمنا": 444,
    "ليبية": 444,
    "تنقطع": 444,
    "لمقيا": 444,
    "لتشكيلا": 444,
    "بيند": 444,
    "سيستغر": 444,
    "يسمعو": 443,
    "بشكلها": 443,
    "مكتفيا": 443,
    "للتخلي": 443,
    "بمهنة": 443,
    "قيفه": 443,
    "هليكو": 443,
    "لمطلقا": 443,
    "تنسحب": 443,
    "لتنين": 443,
    "للمخد": 442,
    "نخشى": 442,
    "لمتعمد": 442,
    "لتفكك": 442,
    "لشبكية": 442,
    "لفقيه": 442,
    "ليعيد": 442,
    "نكليز": 442,
    "لنقر": 442,
    "عيمة": 442,
    "لبهلو": 442,
    "بتمثيل": 442,
    "يكفيه": 442,
    "لمحب": 441,
    "لكفة": 441,
    "لتحل": 441,
    "بيتهم": 441,
    "تضيق": 441,
    "للمضا": 441,
    "لليلي": 441,
    "يتصف": 441,
    "تجمعت": 441,
    "بهلو": 441,
    "لسم": 441,
    "صيفية": 441,
    "فبعض": 441,
    "علنية": 440,
    "غفلة": 440,
    "تنعقد": 440,
    "كيند": 440,
    "صمد": 440,
    "كعر": 440,
    "لعجيب": 440,
    "كسير": 440,
    "لكتيبة": 440,
    "سيميو": 440,
    "لخلط": 439,
    "تيهما": 439,
    "لخيم": 439,
    "فقيد": 439,
    "لخطى": 439,
    "متسع": 439,
    "قلتها": 439,
    "تسليمهم": 439,
    "فمر": 439,
    "لسلفي": 439,
    "مينيكا": 439,
    "يلم": 438,
    "تعليميا": 438,
    "يضمه": 438,
    "نفطي": 438,
    "يهيمن": 438,
    "مفخر": 438,
    "لسخا": 438,
    "لمقبلتين": 438,
    "لتشكيليين": 438,
    "تحميلها": 438,
    "يخططو": 437,
    "تتضمنه": 437,
    "ميليتو": 437,
    "لمنقذ": 437,
    "ميجيل": 437,
    "لمشكو": 437,
    "تنصب": 437,
    "تشنها": 437,
    "يطير": 437,
    "مكلف": 437,
    "لتشيلسي": 437,
    "تستعين": 437,
    "تبعت": 437,
    "بيلبا": 437,
    "مقتضب": 437,
    "نكس": 437,
    "يصين": 436,
    "يتعمد": 436,
    "تبي": 436,
    "نسكي": 436,
    "بلين": 436,
    "نقتر": 436,
    "تخصصه": 436,
    "كبتها": 436,
    "لمتسبب": 436,
    "قفص": 436,
    "للهيىا": 435,
    "نثا": 435,
    "ضعين": 435,
    "لمثبتة": 435,
    "سمعو": 435,
    "عله": 435,
    "لتثبت": 435,
    "محببة": 435,
    "لعظم": 435,
    "لحطب": 435,
    "نفتخر": 435,
    "نقي": 435,
    "للتقنية": 435,
    "سيقيا": 435,
    "نقلبت": 434,
    "تقسم": 434,
    "ليضيف": 434,
    "حتنا": 434,
    "شيق": 434,
    "بتلبية": 434,
    "ليظهر": 434,
    "غصن": 434,
    "تكلل": 434,
    "للثر": 434,
    "بعمله": 434,
    "يصنعو": 434,
    "يستسلم": 434,
    "تنتهج": 434,
    "يستهلك": 434,
    "نفتح": 434,
    "فتد": 434,
    "مكعبة": 434,
    "ستبلغ": 433,
    "كثيفا": 433,
    "بلغتها": 433,
    "نهضتها": 433,
    "لقير": 433,
    "يستمتعو": 433,
    "حينىذ": 433,
    "للتيا": 433,
    "لمكتتبة": 433,
    "لحمية": 433,
    "يسما": 433,
    "نخل": 433,
    "للكيلو": 433,
    "بضعف": 433,
    "نغلا": 432,
    "كتف": 432,
    "لسني": 432,
    "فيلبس": 432,
    "تتلقا": 432,
    "ينطق": 432,
    "معني": 432,
    "تكملة": 432,
    "ىضا": 432,
    "ليخسر": 432,
    "كسيو": 432,
    "لتنسيقي": 432,
    "سلتيك": 432,
    "لينجح": 431,
    "لقضبا": 431,
    "لحطا": 431,
    "سينضم": 431,
    "نحل": 431,
    "نعيشها": 431,
    "للكلمة": 431,
    "جلستين": 431,
    "عيت": 431,
    "نهجه": 431,
    "حنو": 431,
    "شيلي": 431,
    "لمحن": 430,
    "تيتو": 430,
    "لضلو": 430,
    "للتحلل": 430,
    "فثمة": 430,
    "سيتيه": 430,
    "يمتها": 430,
    "مسعا": 430,
    "تشييع": 430,
    "فيتيل": 430,
    "لغم": 430,
    "شتغل": 430,
    "يستقلو": 430,
    "شيفا": 430,
    "مهو": 430,
    "صبو": 430,
    "منتسبيها": 430,
    "مبسطة": 430,
    "يختز": 429,
    "للقتا": 429,
    "بتعهد": 429,
    "نتظم": 429,
    "ستيقظ": 429,
    "تفصح": 429,
    "سكت": 429,
    "يخل": 429,
    "لحميمة": 428,
    "للتظا": 428,
    "بتقر": 428,
    "متضمنا": 428,
    "هتة": 428,
    "لمتهو": 428,
    "لمحبين": 428,
    "تنظيمي": 428,
    "تطبقها": 428,
    "فحصها": 428,
    "لتغا": 428,
    "كلفته": 428,
    "ممتعا": 428,
    "تعمق": 428,
    "منتخبها": 428,
    "لمجيء": 428,
    "فتحها": 428,
    "سيلي": 428,
    "لقيصر": 427,
    "مقيمة": 427,
    "لطعم": 427,
    "يميو": 427,
    "تليفو": 427,
    "قبلهم": 427,
    "لممثلي": 427,
    "لعجب": 427,
    "لكشا": 426,
    "بضخ": 426,
    "للعز": 426,
    "تكتيكا": 426,
    "يستي": 426,
    "لعلف": 426,
    "ضتنا": 426,
    "يعطيها": 426,
    "يقيمها": 426,
    "مغني": 426,
    "سيقر": 426,
    "تبتسم": 425,
    "سلحتها": 425,
    "لطة": 425,
    "بطعم": 425,
    "فيلمها": 425,
    "ينجا": 425,
    "تفصيليا": 425,
    "تضمنتها": 425,
    "لكسل": 425,
    "لبسة": 425,
    "بمىا": 425,
    "ليجا": 425,
    "قلقو": 425,
    "جلية": 425,
    "ينغ": 425,
    "للمغا": 425,
    "سيبذ": 425,
    "لمستضيفة": 425,
    "فشلها": 424,
    "للمجتمعا": 424,
    "تعجب": 424,
    "تسجيلي": 424,
    "منتخبه": 424,
    "تتكفل": 424,
    "لتستر": 424,
    "حسر": 424,
    "خلته": 424,
    "تفكك": 424,
    "سلمو": 423,
    "فهر": 423,
    "نعها": 423,
    "تحملت": 423,
    "للملعب": 423,
    "يتطا": 423,
    "تشكله": 423,
    "مجلد": 423,
    "خطيبي": 423,
    "تجنيب": 423,
    "محتد": 423,
    "لطهر": 423,
    "نطق": 423,
    "مهنيا": 423,
    "سكينة": 422,
    "لقبلة": 422,
    "لتتنا": 422,
    "ليمنح": 422,
    "مثنيا": 422,
    "بتغر": 422,
    "جيفا": 422,
    "ستطلق": 422,
    "لمحك": 422,
    "بقتي": 422,
    "للمنتج": 422,
    "منتصر": 422,
    "يلما": 422,
    "تهميش": 422,
    "ينمي": 421,
    "سيمكن": 421,
    "يثو": 421,
    "يقمن": 421,
    "قفين": 421,
    "يجهز": 421,
    "نكية": 421,
    "عفيفي": 421,
    "لشجير": 421,
    "ببقا": 420,
    "بتهد": 420,
    "فعتين": 420,
    "تعلمه": 420,
    "نيني": 420,
    "قطبي": 420,
    "تكبة": 420,
    "لمسجو": 420,
    "ليتصد": 420,
    "مسن": 420,
    "بتنسيق": 419,
    "طمه": 419,
    "كتسح": 419,
    "ليصعد": 419,
    "بفىا": 419,
    "لحصى": 419,
    "جليلي": 419,
    "لمتعلمين": 419,
    "بيىتنا": 419,
    "ميليبا": 419,
    "نهجها": 418,
    "لحيد": 418,
    "خصما": 418,
    "تتجمع": 418,
    "فحين": 418,
    "لفته": 418,
    "محض": 418,
    "تمثيلا": 418,
    "ستهجا": 418,
    "بمعنا": 418,
    "لنخا": 418,
    "لعشبي": 418,
    "تمنا": 417,
    "تسعينيا": 417,
    "تنتا": 417,
    "نسجل": 417,
    "للبنة": 417,
    "تيليكو": 417,
    "فيند": 417,
    "ليظل": 417,
    "محب": 417,
    "صينة": 417,
    "لملحمة": 417,
    "لنقش": 417,
    "تعليمها": 417,
    "جلبت": 417,
    "يستفد": 417,
    "للصحف": 417,
    "لغطس": 417,
    "صق": 417,
    "ينقطع": 416,
    "عينيك": 416,
    "لمغشو": 416,
    "تنميته": 416,
    "خمينيز": 416,
    "بص": 416,
    "لكيت": 416,
    "بثينة": 416,
    "صتي": 416,
    "خنو": 416,
    "للطبيعة": 416,
    "بمينا": 416,
    "تضمنه": 416,
    "بيبو": 416,
    "تحيل": 416,
    "يفصله": 416,
    "سيحتا": 416,
    "كمجمو": 416,
    "يمتهم": 416,
    "لخلفا": 416,
    "لنسختين": 415,
    "ظيفتها": 415,
    "غبتنا": 415,
    "لقطبية": 415,
    "للسند": 415,
    "لقتلة": 415,
    "بنظير": 415,
    "بمقتضا": 415,
    "ليتعر": 414,
    "بطن": 414,
    "سكنه": 414,
    "صبي": 414,
    "تجيب": 414,
    "بشجا": 414,
    "بعبد": 414,
    "بينك": 414,
    "فتبد": 414,
    "لكيك": 414,
    "محتلا": 414,
    "يتضمنه": 414,
    "يسين": 414,
    "يتجد": 414,
    "لمكلفين": 414,
    "لبيز": 414,
    "كنعا": 414,
    "لتبعية": 414,
    "لمعين": 414,
    "تحتم": 414,
    "كفنا": 413,
    "ىضة": 413,
    "تنتهك": 413,
    "سمنا": 413,
    "يعطو": 413,
    "ستستفيد": 413,
    "يستحيل": 413,
    "لطفيف": 413,
    "لمحققو": 413,
    "كممثل": 413,
    "نحمل": 413,
    "عهو": 413,
    "ليش": 413,
    "نصحت": 413,
    "لنيبا": 413,
    "يستحقه": 413,
    "جثته": 413,
    "فعن": 412,
    "عصيا": 412,
    "جلطة": 412,
    "بحمل": 412,
    "قمبر": 412,
    "فسيها": 412,
    "لعتمة": 411,
    "للضما": 411,
    "يغد": 411,
    "مقتضيا": 411,
    "للمحر": 411,
    "بيىتها": 410,
    "ثقيل": 410,
    "لمظلم": 410,
    "يبيعو": 410,
    "تشيا": 410,
    "للحب": 410,
    "شحها": 410,
    "ملتقيا": 410,
    "لتقطها": 409,
    "للمتهمين": 409,
    "للعميل": 409,
    "تخف": 409,
    "لممثلا": 409,
    "سيخر": 409,
    "معهن": 409,
    "شبهة": 409,
    "يعطى": 409,
    "نهي": 409,
    "قبلا": 409,
    "فعى": 408,
    "قبتهم": 408,
    "لتمكينهم": 408,
    "بكتير": 408,
    "يكذ": 408,
    "همتهم": 408,
    "فبينما": 408,
    "نبضا": 408,
    "سبعينيا": 407,
    "يعنا": 407,
    "لسلف": 407,
    "قتسا": 407,
    "لحلة": 407,
    "يلعبا": 407,
    "فسحة": 407,
    "تستلز": 407,
    "تتسر": 406,
    "لشحو": 406,
    "كلل": 406,
    "شينز": 406,
    "طيسية": 406,
    "لعطش": 405,
    "لغيثي": 405,
    "للتعذ": 405,
    "حبيبته": 405,
    "للتنو": 405,
    "تغليب": 405,
    "حيبه": 405,
    "سنها": 405,
    "لتحضر": 405,
    "لتنظير": 405,
    "للمصد": 405,
    "خبيل": 405,
    "نظهر": 405,
    "تتكلم": 405,
    "هيله": 405,
    "لخلع": 405,
    "لبيب": 405,
    "يحيا": 404,
    "متعلقا": 404,
    "حينذ": 404,
    "لتعكس": 404,
    "تحتجز": 404,
    "تكتيك": 404,
    "نقيم": 404,
    "يحبه": 404,
    "لعتيقة": 404,
    "لنبض": 404,
    "تصفيق": 404,
    "ىفها": 404,
    "لمحمل": 404,
    "سنسعى": 404,
    "شكلو": 403,
    "لمحتد": 403,
    "بحجز": 403,
    "فتلك": 403,
    "قطعو": 403,
    "صبيا": 403,
    "تكبيها": 403,
    "حتج": 403,
[...]
